BFC4BE0E98F503F9
BFCF3C4D63352E8B
3FB09EB3DFC0F04B
BFCA49491F2DC2B1
3F6CB101A65981B8
3FCF976CD91C3B75
BF95D90742BF6D3E
3FCC9258DD91C108
3FC4E9C1BA9FF985
3FBC4704E1BC1D27
BFA2EC665EF36F3D
BFD5B61F76BDCC7F
3FD4F9D0FC5C5C77
BFB90BD850639AAF
BFC17266BA493C8A
3FC1602503C5875E
3FD0906EA29FFD8C
3F973FF947DD97D4
3FCA6274FFB1509A
3FC32DCBEB257D68
3FCA24F908BFED15
BFBA97E2E034889E
BFBB4F3D54F524DB
3FBF09BF467C662D
BFD955C7FDDB0CAC
BFCB5ECC6924B1BB
3FD0B98FA376922E
3FD1BBB420AE764B
3FCB43EAFBE1E334
3FC475FEDFC4763C
3F80AA2BB814AEE4
BFB55BDBDE62A160
BFA65DB6BF6F412B
3FA6DE7FFD913AD0
3FC9C1C44594B4AD
3FBB41FEA8112BA1
BF9D8815A775EA01
BFC798FB391BD574
BFC69A21A9C8E6B9
BF86AA6964616D47
BFBC99C8FEE1F2CF
BFBB12CD0C37C6C1
BF6D7BBAD039D883
BFB04319B02A54BD
BF67D15D5545ACB2
BFCFA562E5FE4C21
3FA22B2CFF677EBF
BFBFF6A8935C93AA
3FA4727C6316BF79
BF8256AE48B9687D
3F7693352F147332
3FB1CDF74444A87C
3FD10F5C28F5C28F
3FC55BC827CC77BD
3FC1E9ADAE23945A
BFB0F5F940F41109
3FC1AF6C3EC2887B
3FD07470C03188E4
3FB32E9701B9BE7D
3FC5E8087CFC2A08
3FCF72A437575A2F
3FB9BFC63E9338AC
3FCA1C0066AD3329
BFBAEDD631D05CA4
BF71F0C126590DC1
BF9A44A7577AEEBC
3FA00AE17CD48951
BF959B7612ABD42F
3FDE41945F73022B
3F8AA4DAF3DF93D7
3F74156B771C6C1C
3F9DF675F9BD81E7
BFE11F2452C59FB2
BFB5C75F24A8ABDB
BF6FE858189AD686
3FBD3B7FA1BA942A
BFA8BF355F8850C7
BF8945E95D151DB8
3FDAE153C274DA1D
3FB60C0978A4AC72
3F90CE3FE97A01A4
BF85003291080BCE
3FB5BC9F8312998B
3FAC9ADA615FEC4F
BFBF55B481404B38
3FBD8B8AB82A5366
3FAAF6C79D0D1694
3FD6A44584998248
3FCA3D521AFFE0A0
BFB83CD675172E45
C007ACAFA64B58C4
BFB6272B9300CE31
BFD90108BE957C7F
BFCEFA5CFDDCE51E
3FA3A9322425B557
3FABCC632318917A
BFCDF2BEF9D06609
BFA7CD0A81B09124
3FDC6FF41941F065
BF7F6C17D6358141
3FA1F2C458341E96
BF3AD8E31F636168
BF75AF75CEE42935
3FE4FE4ABE6A337B
BF8D146C8D60BFF8
BF810BE64E644D43
3F948C32A032B251
BF729003EEA209AB
BFF8CFD1640B4253
BFD2594042E62E9E
BFA8F02D01C96166
BFDF54E6E221C8A8
3FB0E408BE14A325
BFD1EEBF9B8BE221
3FAF71601492B422
3FDE8A7503B81B65
BFCC7E6B8056A782
BFE72C9ADDE7515D
BFC603A840A66357
3FD0D472DE6EE0B3
BFE277A65F7AB9DB
3FD3C2EF3DE5E9A9
3FD6449F00E1A74F
BFE9C6614310F6C8
BFD9D7BA6698BB4D
BFD5B168E36E4EE8
3FB2B66E10A9C662
3FD58B0DBAA8B2E7
3FDD1C25651456CF
3F9FE11866DCB682
BF97845EFD6F09AC
3FC4B71EE59E54EA
3F4C6014E00357C6
BFB7F5D7322B7650
3FBC4297BFA4C61E
BFD2C7F68400553A
BFD5B61E9FFE37A9
BFCC45B2E79E5F51
3FB9F6D284C7A571
3FB29DF82311D2E6
BFC5167BD7E7B302
3FE117CE1D2EE4F0
BFB603A7BFCD0A09
BFD07F199B5C9252

