BFD88B43E0AA7A3D
BFE2003686A4CA4F
BFD88293832A167F
BFE1BBB9B4C2140C
BFC2F4CF09E8E201
BFD354D5AFCA5D87
BFC32469D7342EDC
BFC02768394F5700
BFDDD47044B6934F
BFA80932D99C131C
3FBE438F76D5F540
BFAD136F9E737314
BFB7015493D60B3A
BFC5781B5A238CF8
BFDB42A6D91D3D28
BFC8EC927A6B8102
BFE0C4B5716674A9
BFD28B2FBEB4862F
BFA0372301E2AE36
3FB6214EAF3A95A8
BFB5C699011858E7
3FCF853990448642
BFD077145E86C907
BFC93ECC438FF7AF
3FC04C58C919E4D9
BFCB0E736049ECB3
BFDA65175BE7317D
BFCEEBFD3EAF932B
BFD68DA67C002B9F
BFBC20C01401BF9E
BFCE203A0737D7B3
BFD792DC5B602300
BFBF9812B0DCAC3E
3FBE0666A174AF54
3FB4D0D0678C0054
3FCAD082B9D92A28
BFC0F72EE093283B
BFD51BD203178C8F
BFAF03BC222FAABE
BFDB92051AF1F3CE
BFDD3AEBF9B8BE22
BFCB3ED66A048098
BFCDC15D57F4DE8F
BFC197D06BBDBE3C
BFB39351ABEF31A7
BFD43E66C3029E96
BFB42C9432A7721F
BFD38066A2766207
BFCC8967C83B42A1
BFD662A8C1AAAFC1
BFD3D37B3CB74074
BFD079B6850CC4B4
BFD7453FBAAB0C33
BF9BE1A0C45B3937
3FADBDAFCE64518E
3FB983B9079E040C
3FC1FD74B55E9C18
3FACA7C3FEC7F19C
3FCFB620B8DD2BC0
3FCB02CFBE18D4E3
3FD411D9FCE111A8
3FCA9A517A710A59
3FC1FC46371BF600
3FB81F718A5BE401
BFB52783FD7B1575
BFC34CA676CCBB04
BFDC805A83593B5B
BFE05D379E51E525
BFD3223EC435FA63
BFD7C6DA84F140F5
BFDA28D64D7F0ED4
BFC16B761AB969C4
3FE09C91303E8C2D
BFA44225EA4A6122
3FB2D61347857AA9
BFC9268C05DD39AC
BFE55022A26C510C
BFD1458397CF94FE
BFCF6ACE2A1A04E4
BFE0B4E6FCF9BB42
BFB99F77D4F8C046
BFD9F97064162A0E
BFD09CC9442C29D5
BFB03BDBF93A93FB
BFDCE95FC0041188
BFB9F175A39B2535
3F5E22AACFCCDC67
BFDB9A0524572251
BF9491A90A4FE51B
BF74D452D30BAB2F
3FCAFD7FF2FF667D
BFC838FDE2EF4E01
BFD202001FE07018
BFC1CA987F933323
BFDDF9DEBE3BE55E
BFD09AA923A54BA9
BFADF6301D7F16E1
BFC0C0CB21510886
3FD586E023C1A628
3F9F7CE0D13B9C63
BFB87D3D178D904C
BFD61FF5FF203123
BFCDDDD3C5BA5EE1
BFE4F5C81E1162FF
BFD5EBE1FB5D2E03
BFD048A3FDF6906B
BFCC67398A903C4E
3FC9BBDC242DB1BF
3FC0CD7C8A9519D8
3FD533F61BFB8923
3FBF01AED6C299EE
3FD08391041EC898
3FC297B593CB237F
BFC3DD10BCBBB29E
3FB2944195F7789D
BFC303717994EC61
BFD49C29007F56CD
BFC6DF8C8284D511
3FBAE020919AF28A
3FCF8907253848C7
3FBD572ADF26C18B
3FDBC183A33828E6
3FD386D358D8086A
3FDBF01A64853ABD
3FD3BCD0A096E3DD
3FC4B8E7FE00A166
3FBEE753B6B65FF9
3FD6C9EB5B83337C
3FDEFFF9B56323BC
3FB5A3522A195917
3FC7A1E440DCBF08
3FC84A246666BC4D
3FD2BCF695F3F2AC
3FC82B0F784307BD
3FC6FC3341CBD251
3FC69F4CB6E7DE20
3FC1F0C8549807C9
3FCFF14B5C49D7E5
3FDC8139FC501D24
3FCA973A59423B8F
3FE034D7223B3E45
3FCCF8E4C338A461
3FD21ADD7BF19300
3FCAE43F19C64FB0

