BFA8FD3621243CF6
3FC8800ED90BCA64
3FDC28D764AB5050
BFC379562D333EF2
3FCD4A97FEB9D9D6
3FDC7156A4A769BC
3FC878643FC592C7
3FB3A5EE10BF3FF1
3FCB68ED2963A699
3FC5F59E67B49A26
3FC7EF042F39A96F
3FC15CBA8099EE53
3FB3F9B1B23F2CE7
3FB8B9475EE43BFF
3FBD731B559BE8D4
BFB0B8AC5964CB31
3FBDB7B5B95FDD8B
3FBA2BD9CD9142DE
BF7FDD7DCA05473D
3FBBDA81156948C4
BF9ABCF86E663A1C
3FB7F669D42F16C4
BFBA5859327649DE
BFA47A34239E14D3
3F7C936EB23A4F5C
BFAB4B83362ADF52
BFB1878A78697336
3FAF9A0C0546E6C4
3FB31D5FB74AAF7C
BFABB8AF5E7CE300
3FAEF4821D7C11C9
3FD295E77DA82172
3FB2354CE8E6DEC7
3FB33EC3B5210990
3FA01DAC0D649784
BFC0B87D9FE8E90D
3FC3983601C4A638
BFC0B6B02AD596A0
BFA73F351F1BA420
3FC17537A507E1CC
BFBADDA2321982B3
BFA5928904202031
BFB01DA7B0B39192
3FB47C49A793D83A
3FBCB11E708375C1
3F8361CB21261568
BF9BAB5F3ED4D1FF
3FB9DC7104A50055
BFBAE9998C2DA04C
3FB43AA3EAD64D29
3FD08A6CC072A15D
BFA3F3D8297747B5
BF92F39D46217774
3FCC023E8927B175
BFCA11D0B7E8E506
BFC85F63A84604C7
BFCD149F1E68CBC6
BFB1283B886C4AAC
3FA74E839BAB6CAB
3FC45FE517F23A1A
3F91A72DD6D2E00C
BFBAFED32F3C8394
BFB8ED9FAB2B9255
3FB1B2470F8909FF
3FBD86B53B60A938
BFAD61E2F4009856
3FABF182E4A154CF
3FC3151BF0F74E81
3FAC3D5A28957573
BF97CF4A8081C592
3FD4429B05298A93
3FD088B7CA0648EF
3FB18D95546587EF
3FBEA3E8FDDAE1B8
BFC2AE0678951220
3FC0462E6293F3E8
3FAF5856D92AA921
BFD1EF11454CBB45
3F8DFEDA66128390
BFC417E87F04EDD0
BFD51628A0DE0686
BFBB33C1A378EB79
3FB06A807C672EB8
3FB4222FD5B0A11D
BFC122669CC21813
3FB165823AD84323
3FB74AD28C296E8E
BFB9AEAB4EA2D04F
BF93E29F1C0F8026
3FCA91DFBBE7CD2E
BFA5A445442CD5A1
3FD2F0E941779995
3FD17619216428C9
3FA618E90511B7B8
3FD797FDA2AD9478
3FE647E6E9AE84E3
3FC215DBDF645412
3FE02866000F1978
3FD1F16B3CB9EFA5
3FC473FF5636EE54
3FD133B3A12CB5EC
3FC7227408BB6571
3FC935149F495BEA
3FD85EEB5D5BA5C3
3FCA2A53BB93EA58
3FC20DD0F9015E24
3FCD9D3B0EC9C75F
3FC303CF985927BA
3FB1A944876E73D1
3FBBB7828DB96694
3FC2651456CF19AE
3FC03356C487D9D4
3FC32179217F00BC
3FCFAB7F1F44E9BF
3FB68C7340697C9B
3FD1D9C79C8C3D3B
3FE5769D607890B5
BFA0FED181BD59E8
3FA4493883293FBF
BFAF56AD0AE58C36
3FD05FF944A4F598
3FA4C9DB80C4B67E
BFAEDEBE10F240A5
3FA5E3D8D7F2F0A3
BFB3765B510987E9
3FDA88D860FF9F32
BFB2DE1AD2EA1D40
BFA129EE90ECCCC7
BF8BD7E7B302206C
BFC7849E09EBBC26
BF89BAD5A96A471C
BFC4995917736426
BF899CB6DA7226E4
3FC0E659FC1FCBA2
BFA50626E0947FD4
3FBD9ACC499A27DF
3FCA0A641C8A245C
3FC3A1BBA70A9B64
3FD78EF855E79322
3FD1696EA3CCA35C
3FD16D7690801564
BFA209D845FCB97A
3FCA99A4C1C0D51D
3FD98C463F298B95
BFB7B1F835306375
3FB422803295538F
BFDD7437C00AC784
3FB78B61C871F439
3FD252BF5515054B
BFC3536B61F8C376
BF95C64040B7D61B
3FC0163002A72447
C0052BBCB1CC9646
3FC0C6D5FD4D1D3F
3FAD7BE223A119EC
BFC772C36BFAFADE
BFBF2244F95947C5
BFB6972E854E88FA
BFC02E5B5D1DE848
BFD7C59002162FC2
BFB2393FE7A18F5C
BFC2FDD5586195F2
3FB91F31F46ED246
3FD600A7853F9A75
BFDF046D82BA5A04
3FA6FBAC89357354
3FC714BBF9C0CBB8
BFE23CBFBEC7508C
BFBFF255C85E7E10
BFD6269BE09BB6AA
BFC9520E802076C3
BFB3F27CB4B17808
BFD5CAEFBD67AA08
BFC14868A4842E4D
BFBF9762DD9AD050
3FC19DE9F5D27F94
3F9E0A053C7FE30F
3FA77A538334D346
BFB7E47408657F36
BFACE52F443B434D
3FA93464E1810EDE
3FC3DE9577201D01
BFBBB35C0D72037E
BFC3431528863107
BFAF88BF2BCF66B0
3FBE04EACB656E9A
BFBD537C53E381F0
BFB9543AEAB7995F
3FA883A5BC67A4D5
3FB965980A4D60DC
3FBB66EFCE2EA1A9
BFCC6A95B5896442
3FDF5426DE3B3434
3FAC06981F9BFCA0
BFA231116FE9F2CD
BFC3533BBC43BD9A
BFCE67BA79631853
3FC6DF6FBCA66402
BFA7F815A5D998E3
BF96960ECA9E1E64
3FA08A971D3D7D8F
3FC9FB3FA6DEFC7A
BFB251606FD75363
3F9D220893776B9C
BFA272E87FDBAD65
3F8916ED2C68BEB0
BFDB81553FA2824B
3F99B7BDC6F5725D
BF81C624BCF8C44C
3F82A38B8AE31D71
3FC368CDDF467708
3F99900977F8DFFB
BFB3D33E2B08ED39
3FB29CE8AE7FAFB9
3F87D7D99B3C5BFC
3FC133E661736278
BFA8AB4D4B3760EA
BF9905EF2D49E526
BF98D37A10117015
3FB6BA07225E23CD
BFD8B75785221350
3FD0049AE49D4E04
3FCB3A60B97E3B6F
BFAA220868844DD8
3FC6898915BDD767
BF8B7FA6D43FB2C8
BFB2E066B2918D31
BFB8F6E980E29389
BFBD32B1AE0D6EFE
3FBFCE7873843128
3FC83566EA19E4AE
BFC309665B28C59C
BFC4B11409A24031
BFCA0281BA7FC32F
BFC9EFD4E49E4FB7
3FC0F4C96B187CCF
BFD36D2BBCF23943
3FDBCA2DB61BB060
BFB196E081B57746
BFECFF69C2915F8E
3FDF74F49EA2EDD6
BFD5B70916293731
C011B8FB00BCBE62
3FD0BC705E36ECFC
BF865F8D843787AC
BFC5A2CF62D435A2
3FDD47E7C06E19B9
3F8CBB7CEE3D34EA
BFC0553C07174B76
BFAB11A0E740C166
BFCA6E6929BA38A1
BF995D513EE1E812
3FC6B398C93A1B2F
BFC033F9D79CDF74
BFCD4E31E72DCC16
3FEFC2ABABEAD4F6
3F725B4C56F0A79D
BFEC2CA5A00D262E
3FDC42026E6F4964
BFE9604DE8C11F1A
BFEC7423DE81801D
3FC9AF45277C70BF
BFD3D471BC85D7C6
BFD0A956DBAEE7DF
BFC20628789A1A9E
BFD7B36963F1C1FA
BFDB223B5E7ADF9A
BFB4743A0E99A0D0
BF7A1AF11D0E2DC0
3FCFDD714A451D96
BFB46A409093E174
BFC9F00967DDB4D2
BFC9152BA0C2ADBA
3FD7F4F865010B99
3FCF04F8A2BE8663
3FBB6283D8BD1AFE
BFB16D5CFAACD9E8
3FB31FDBBD807E96
3FBF134150575B5C
3FD230CAC35D3769
3FAE39FFD60E94EE
BFE456AA9C205C97
3FE0FBABC29109A8
BFC5304B36E010F7
BFDDB7C904963CC3
BFC2554886D7751C
BFD44E5D1AB83D1E
BFA2C84D363EAB61
BFBFB82AD43F06FC
BFBD6EDF30D285C9
BFB1E040F2E46397
3FAD2C88493A30A8
3F659903F27DE157
BFB9EE00CF07E57D
BFB1D8CF6481B4CB
3F8BF4C5BA33EDEE
3FC9419DDA1B1403
BFB5D5103D39F23F
BFC393417B4A7920
BF955B0ABD9E30AD
3FAFEE675147F130
BF99712F6D2AFBAC
BFC7188608C31D21
3FD3F76922D948DC
BFA94573FD7DC4A7
BFC00019C0C65940
BFD50A6CA03C4B0A
BFB61AB0856E696A
3FD1CE4E82191F61
BFC264EA24F75B41
BFB95687A11E9E26
3FB32301E2AE3588
BFC8962AE4B01861
BFC38984F9797E1B
BFC198AE21BBE777
3FBEEA7FE6144689
3FBCBE9B05D5570A
3F80445B4EB03C48
BFB35D0DCD1D29B1
3FA52394DA981184
3F93890CAE8F1F17
3FC233C076D31B1B
3FBA71560397BA1B
3FDC288381D52CC3
BF68FAF8AF28CCFE
BFB36FAE0DC4E4A1
BFAD3D925CB9696E
3FA7B1925EBCCED3
BFB156F8B532FD2D
BFB6419F5CA71FEA
3FA808C119BB3D02
3FC4039DC44B9EE5
3FB55F10DC9C22B6
BFA0501B206CDCF8
3FBD6EA320D6E52A
BF8FD91FC166673D
3FA0F452CDAD4776
3FB047E7CB2AE12A
BFBBA5756FEEA565
3FB173B6860E7767
3FCA142B1AB5E3D2
3FCD5F111D08CF5C
3FC70A5A76EEF4C0
3FA9AFEB3FA98E2E
3FCE023132A7F2F9
3FC60CC34767F384
BF99231B0D21A699
3FC188D5FCF73704
3FC4D033899A4815
3FC63C3DDE5CED16
3FD421D7E152EBB5
3FBAB716572F66CB
BFB493868514D24A
3F96808D2E265905
3F92E2F1D23FD355
3FA02BAF5B4CD7CA
3FA8146A703648E7
3FC0E5A098BC4EFB
3FB54529AAC941D3
3FC0FBE32553CC86
BFB8F6B9046DF8D7
BFA1574002CF6833
BFBD123231AB73B7
3FB1F50D5DB6947C
3FAAE770BD017DAF
BFC76B2F636FE6EE
3FBD04608CDD9E81
BFB246217773FFD7
BFCFF6DBFF6FB748
3FB9830400EB8D57
3FB71CE6C093D966
3F841F0D0B813D82
3FCA20FFBF68603C
3FBB486C5568BD2E
3F999E294B52E4A9
3F97A8FF3D376E00
3FA9B648A6E2D852
3FB5E6F3BF7FDD30
BF5F7F8CA8198F1D
BF9B04E267E99E3F
BFAEC9ECF388CE45
BFB75EB7F1488225
BFB4D018B1A7AD59
BFC3F8990371A488
BFA9FF9BAC187745
BFB419F7A2E44610
3FCAFA21C4A0D954
BFCC3A79A384FFDA
BFC54BD76EE73E68
BF983458F813CD67
BF9D7A27387E20C2
3FACC70CC45E9435
BFAD9931EAB3BD87
3FB22C4D0FFE24DF
3FC71E50222C4FBF
3FB602AB5604996D
3FD72DFDBF33063D
3FC7C5479D4D8341
BFCF61BB05FAEBC4
3FC65B87BB1FD12C
3FBB2761EEB27ABC
BFCDFA0CE164DF53
3FE12A975DAA2A36
3FE4495ABCE4F83D
3FC6B209FDDAB6C5
BFCDEE551D3DD375
BFD408B4DA67C003
BFC8C30C193DE99B
BFB45C15AA8C3025
BFD482D9234757D8
BFB4780346DC5D64
3FB15DDB52769A66
BFC650FDDEE88337
3FA5AFC0A2720556
3F7534CAE2E7C145
BFB0375581BCAE1C
BFAEEB6162708D87
BF6F1340A48AE44A
BFBC46AE9020C9FA
3FB663144C683879
3FAB4FA98B7F24A3
3FBC38B9AFE489AD
3FCAE72E626900CB
BFC329EDA4B3A90F
BFBCF7085F9FF8AE
3FC41DE619FAD2EF
BFB588B36D5542FE
BFD6B11E0523AB56
BFB6257051F7997F
3FB7647C2B74A2EA
3FC5E410604A6D8C
3FCD4343B70EF566
BFC5EA0328FF52B1
3FB968F8BCEAAC87
3FA9E853BBE9D094
BFC657E9F6D43247
BFA2A9A2255955DD
BF966B68D9B33A2A
BFB194DE73E930DC
3FC2302536C63AB7
3FDD5A7BC1C257A9
3FC7C48EE5B67DAB
BFA7FD8378F0D799
BFD0305780F05568
3FCAA3C6C41F293B
3FC996F4384BA0E8
BFBE5EB87221DB72
3FD6E48B2F738B12
3FC563751A5E5017
BFC5BA424620A0B4
BFC92C4AF71F30C8
BFD4BE0DED288CE7
3FD0B7E51EA836C0
BFC489C8D69E06E7
BFACB03C485AB7B2
3FB23AA2126405B9
BFA25D13AC5A3B8B
BF530D636ADE7038
BFC1100860CC9E7F
3FC9F1672075965A
BF70B8A4CCA88FAC
BFA9AF69649D8E71
BFB4C23112719CA5
3FB926E84C2F2D95
BFC4674D00B9B94A
3FBDD66C88BF56C3
3F8932D43DAF6305
3FC87586BFCD34FD
3FC1C6D8162C1156
BFAE5E1F1A21944F
BFC1DFB318F19381
BFC18EE1195FF863
BF55E168BB2A6300
3FAB868AC91C3E24
BFB48939D0056671
3FAA05B8FC8B5660
3FC53D9206D32DE5
3FB23B7E305C942B
3FC300B115613B2E
BFA07069499AA8B8
3F9526CB45E40FDF
3FC873C2C561F467
3FAE66442CAAADE9
3FC6B1919D76C8DF
3FB1937CF4F33190
BF949F94855DA273
3FB154D2C02BD49A
3FC3CE9D1C051944
3F4CFEA8E7EB3644
BFC3CCF5FCF1D8A0
3FAF2DF60783ACF3
BFD4CA517D203C36
BFCAF663DF787608
3FA947ABBB2F408A
BFB0F6BE8DC4CF27
3F9BBC2E440B1CBF
BF83DD3E092517BD
3FA6DF637D52E703
3FC78CD3B87958B1
3FCCAD717D45D0F0
3FC3BEE1BD1ED9E0
BF8BB697813B7EDC
3FCAD7F879F9C122
3F9CA2B3C99B94F1
BFB941078732E4AF
BFD50EED4339E681
BF8CC6C3F4361D48
BFD443D91DBE0102
BFD3959E828C8CC1
BFC0FD6AE4D04EB7
BFDF15E6DC9871D1
BFDDC8CC0175CBDF
BFADDCFEF4115F4E
3FC6EF5D9B66A34D
3FCBFADAE797A954
3FABA971FECAF6B4
3FB33C8ED19487B7
3FC223EF1D84A038
3FA29366FA8AF613
3FBD1E9597567354
3FD28BAE5EF888E8
3FD2A1D140CFD3E8
3FD2F11500982B5A
3FD2CC719DA71A61
3FA0F8375EBBF813
3FCBC0687AE8A977
BFD5D43FF3351662
BFCEEA20DB16E778
BFC22D0D295E4835
BFD162EDE0EE97CE
3FCAB305BBD6B050
3FC9C8E44A6CE0A9
3FB8DDC46BD53B30
3F9F820177795E3B
3FC8E892253111F1
3FD06513C07C317F
3FC9974A3400B88D
3FD3C6B6DE230B73
3FCD72375500E355
BF66FCB14100256A
3FBC73865F80183E
3FC71DFCD5A91461
3FBF5BBFC450A762
3FD7A7563AF51E7B
3FD7778FEEF5EC81
3FC51344806290EF
BFCCD623A31D50F4
BFBB10A99B6F5CAF
BFA49736BDD73B91
3FD09892BE332BFC
3FB3F3CE6E628937
BF704FC940FC1E9F
3FC75CF2CA377130
3FD51804D9839475
BFD41A87A072D1AF
BFB82F43BA69F3BA
3FC08E3CD9A52264
BFC943D23CCE3C8E
3FD2849A83FA4B0A
3FCBA2C4BB86536C
3FB7F742FE3D994F
3FB00E9D5E978768
BF5ED636CCD37F5A
BFB009DF9F2ED146
3FB2AF7F5F05C9EE
BF304F887C597887
3F97EE0579082103
3FD2FBE9BB1A1CE2
3FB0D8E5B4D02BD2
3FB137DC0F5FEF54
3FDC4FF62205B952
3FC04A9108508680
3FC5745BF26F1DC5
3FA7C732840BBDCE
3FC3A4993C7C8811
3FC2BE1071674B69
BFC058C3252E37CC
BFC231D2758339DC
3F719355B2B9FC10
3FB282C211B2DADE
3F99754E60B6233D
BFBF1D158F894A6C
3FBF0F85D9F427B0
3FC80E0C1CC3DB0C
3FD238ADC6774836
BFB7228007A235CA
BFC3CD86C68331A3
BFB12C7F8FD824C5
BFCFB340CA1F9E56
3F9218CC29B9B7C7
3FA3774200D669AF
BFA59CBEE807BBB6
BFC58E7A81A65DCD
BFCDF240E522840E
BF53DFA61858108D
BFCF5F89A85FDB07
BF91ABCEFB5042E3
BFB0F183657AAE1C
BFB0E975A4F2BE23
3FBE61C56CDC2154
BFAC62085DC78667
BFCCBD9724CA39CA
BFB287C45A0C90DD
3FC5C78BC54599E8
3FBDB86810E077FA
3FC18AF9C3A5DC9E
3FCA4F78F990FB10
3FB7794C1C3844EB
BF9C9A57AF9457BB
BFCA56CFF06DBBC5
3FB3E2E613C5AFA2
3FB91984B65D9F98
BFAD5ACD5609A1EA
BFA1ED76BB733328
BFA48C0836854D31
BFADA67C002B9EEA
BF9B7AFA472E67C7
BF7FD38FB493700A
3FBB7E734D7F8FAD
3FB37D3BEAE7BFED
3FB7870ACBB5F672
BF90F1E4B44A1F08
3FC87193D68C1349
BFA90A7A2C6BEEBC
BFB66508EE3B3184
BF9EA5BC9297F2A5
3FAB9213E940F6C0
BF9BE0F4F7E427B2
3FBD4D94327C7F02
3F9E86EDF05DF680
3FA60EA1587FC8E3
BF8D98A0A0490B37
3FC7F839372E3F83
3FC097A93EFE179E
3FBE1008B6B2DA07
3FA53F30169E271D
BF9B16735EF253C5
3F96FFBA5FE2BEA7
3FCC4807D68E16AF
3FB0C2A3D4052559
3FB6F382EF083604
3FC47CFF4499371E
BFB70DFD6EAB2E6C
3FC7DAF152BE12F6
3FC125EC384CF881
BF811B80E4ECD429
3FD3D4649BB5FE7F
3FC9BCD55DEAECC8
3FD239052482156E
BFCB61D6B4AD1B57
3FA2036B6F64BCC3
3FB3D05ED29E47FF
BFD52E36FFC67443
BFD070433EC40B07
3FC0873A5BF16D6B
BFAF74E60603D019
BFB6F20DCEF59BF9
3FC13ECC59098691
BFA1B3CE2339151F
3F9CFD7EF14CB3E3
3FB0585658514FD4
3F81B9587BC2183E
3FB3E426B098E493
BF84F8AACC1BF7D8
3FC521223990C560
3FC4EE7A8704C186
3FD4A2A6DE7BA0E0
3FB957A42BC3D329
BFAD352ADA1E440E
3FE0DDF6C0BC1D52
3FA4ADD8EBBF005B
3FC9C58F00637D28
3FB514ECCC1BA1F2
3FB2B65FF8E401F3
3FDC293400E37FC2
BFA7F6357BE2CF6E
3FA93BE4DD8FBDA3
3FB255A54E02C252
BF9851E2CBBCAC6E
3F9878F0ACA5E5D8
3FD1C44E63904837
BFBE5E9AEAFD646F
3FB1BCDD6B80819B
3F9AA65A47493FBA
3FD1A6117720C8CD
BFCCBCEB42D99964
3F8042177C9E612A
3FCC22463B78A706
BFC636AC647778DD
BFA1914084AA7432
BFB2FC1869D93794
BFC616863EC8E892
3FC201B0C4AE7040
BFA750A48835183B
3FA7986B464A1146
BF8E577FEEA2B577
BFC1CD03287E7958
3FC0AC8CA5EB369A
3FAB47B779A9643D
BFC0277981205103
BFB796DEA9432FD6
3FD04126DC0CDBB1
3FC681B6F9D1BDA2
3FCF515E97650BF3
3F96F53E051E4CF2
3FC7F9B13165D399
3FC6474289BD5891
3F9F1C407D739E32
BFB67423127EB2B8
3FCCB70DC8C078AC
3FC9226458F00638
BFC085CADAAF3892
BFC7409BFC755BF8
BFCBE7D01DE51848
BFB1C4730C113054
3F9B89AA63406C2C
3FC84773469E9FE9
BFC004109B58B67A
3FBF4AD59141865D
3FD12B4E422D4C13
BFC1F39C197BA715
3FC65A4484944ED7
BFAA9465A825788B
3FA2B6CA01157EC2
3FD2EC512185B6B9
3FCFBA62E7D6BE68
3FD025237B045829
3FCEEF7787201A52
3FB7C15CAC28677D
3FBDBE8A69D0D418
BFC0A7A5CBD70387
BF83F77A4A73EC8C
3FC6EBFC67EFFE55
BF83C92D85F52201
BF782AD18FD51FAD
3FBF49700B80BCA9
BFA32AE98DA2C05F
3F936E71CDA2B5A2
3FB3F0CAD8D6C64B
3FB6374794EA0770
3FA102CC382763C7
3FC1B99CC4466B74
BFC26B5477509976
BFD4079E59F2BA9D
3FB7C3F58DB63688
BFC3771D6DCF1074
3FB4CDA4382E19C4
3FC82040A7BAEF80
BFA79079347450E0
3FB17B2087B4EAAE
BFC2E2E71578623C
BF5DC908F2EDC8C6
BFC94FD6977BDD1B
3FC274821D7C11C9
3FB8E5626FE1BA45
BFC934E915D8AF59
BF76A4CA4F440AF2
BFAD4D9BBF38BA87
BFC2B194779BC2EA
BFAA278D62A9986A
3FC4A7C81B0C4AE7
3FC466465B0330E2
BF93656488C0AE5B
BF804DE0B38984CF
BFC35A0BBA1D72AD
3FA837E49DCEDD73
3FD146D36394CFDB
3FC24E0820B5D814
3FBFEBA95BD96F9D
3FD10440D760A486
3FC1709803168ADC
3FC49F85815EBA4B
3FC67891A1A886C7
3FAE79F0B1D95673
BF8F82392AC3F8E9
BFD0ACB0A29FA7A6
BF93B55968A7086D
BFA20707863131FC
BF9461D70A9356DF
BFB2801FCAF688DE
BF96252655295234
BFC2682C23CA5F8A
BFCDF5E016809FF9
3FC77B32FC2BB510
3FB5A1EA2019D0E2
3FC2BBC2B94D9408
3FC8478BDABF28CA
3FCC10120667CE1A
3FBF35F42DB9CC95
3FCAAB5EA881E9D0
3FCD9CFC7A8F683D
BF79E7D2E2908370
BFB4D1EBF07E82BD
BFA072151B452AD7
3FB55A65D216E39C
BFAEA9071FD9E50E
BFAD62A38E3A14FA
BFB01492892F133E
3FBB41CC532A4980
BFB0A76C152703A5
3F9B64F928F64369
BFB329459E9AB54D
3FA5CFF5F7129B8E
3FBCB6EF14F6314A
BFBC43B48AB6A7C7
3FB6E2D8A7CC6244
3FB104ECA3D7B60A
BFC1D9A21D4BC048
BF8F3B4C315BED92
3FA11A86E9E9932C
BFC5FC418484B485
BFC1BDDC191B0412
3FAB5CCB0724E263
3FA9D6F1BEC9A9D8
3FCFD59E57996EFC
3FD74166FD900E2B
3FC7983FBCD964B6
3FCB153200D918E0
3FC5DA07885F8A7F
3FB3AA8376C27F16
3FC4413FFBC38550
BFB341DEF29431A6
3FCDF2EC9C2006B1
3FC485E257A37FF7
BF9DCE32FE5A0D93
3FC78EE103E66981
3FBA601797CC3A00
BF9FF2DA7D8F77D8
BFC6F3458773A742
3FC5309198435844
3FB7997BBC8EE70E
BFD201A24188E166
BFD2DC30171F0076
BFB18B786EA6A6C8
3F914FA78819BF6F
3F78FAD06B3CE4E3
BFB1C26E241FEFDF
3FAEB4BBDEE8D91D
3FC4F600375D645F
3FC3D6BC39D79223
3FBED1836AD911D5
3FB36B7BA4104014
3FD129676CF6A360
3F5C22F64F272F9A
3FD08E0962D53755
3FD76212843C0F50
3FC32138CA4BE90D
3FC1D89E26C71426
3FB53C300703D54D
BFA88759FBF4D885
BFAFD38E5CFA81E7
BFB953F31C41D50D
3F4653E9E2066FDC
3F9C9F6F9C700DAF
BFC14A61222ED3FE
BFCBDF1C45300AE0
BFACAC6070AE12F8
3FB1EEE6D3085031
3FD35909DC77BAA2
3F9CFE03D170CB6F
BFA7491A7B2B6F6F
3FBB9BDCBFDEFDA7
3FB3DE250ED8350B
3FB25ADB98C2841F
BF6EE5B3CE791F51
3FB5388D652DD729
BFB41A818B85DAA0
3FC7EFA2FB173800
3FCB7991FCC232EB
BFB28E226D125212
3FA46B18FDA7E105
3F46B751906B7295
BFB590D87FDE5C97
3FBFB6FEAF4801A1
3FCCDDCAF6DEC41B
3FBB508D0B40D0D6
3F49E0A6C957F83A
3FBFB5BEBE4143C2
BFB27C3809DCA2AE
3F80260C2E369F23
3F9CC84BDEA5BD3E
3F8345DD59E2CA65
3FB655AA56803F56
BFC677806A1DAB0C
BFDAC00DE215DF3A
BFAFA57FABDCBD30
3FBB8E60AB6675AB
BFA336BCD588DE0B
3FBFF202107B7846
3FD352405EEAC709
3FE111E108C3F3E0
BFAFB1E74345A4FB
3FC298C1826BD591
BF9DBDABC7998725
3F862BFFE324A800
BFA8EF977D09C0F4
BFA012B940280E3C
BFAC438A994B9601
BF9949C8F6D45D3A
BFB5C455DAD2F4DA
BFB312F14958E473
3F8455D0162D68EF
3FA7D8BE7296F651
BFC15E7FFD913AD0
BFC14B48FEA18622
3FAE16AB3D300C37
BFAD3943C3793C01
3FC4D32FA7E35E5F
3FBA95E0269BCB22
3F960BEBC68D17AB
3FCCCC6C54BCF0B7
3FD1C8981F461665
3FA0B42AEA646255
3FC2D2BA4C978847
3FDCFF95210EEE5A
3F86EB702602C908
3FC3726476772AAF
BFAA27B04831C7F9
3F5B7E000B12ADAD
3FC1BE8739C59E85
BFA7E2BAF5B4CD7D
3FB02B8640A15AD9
BFC02F7578FDEDAC
BF83B72DD423AE30
BFB24AE8B184C7D0
BFC0848824FD0F8B
BFC386F0F5760E4F
3FB5D696D010A412
3FCD32378AB0C88A
3FB8F18A715D9054
3FD12A369FCF3DC0
3FD270151B9B1113
3FD5729304FFEF0E
3FBCDD7439E3A683
3FCB060C490E91BE
3FB90643102008B4
3FAD71647143BA14
3FB02F0A59A02F60
3F909658F25F8373
BFBA3D913013990F
BFD63A9FE40B82C0
BFD2079143DFA8C8
BFBED20545E51192
BFD51EFF342825B9
3F5B4677B395C422
BFC20394F570041F
BF90C76E691440AA
3FAD3648BC5C6734
BF8EB4E2CB3BD315
BF86A178B61F3651
BFC758D9757CAED2
3FCC8075863EF3DC
BFB557C538D9BB48
BFC796C2E5177161
BFC7AECEB504592B
BFAA7EC73055B33B
3F9F8DC14935FEEB
3FC15136537923D8
3FD8BDDC03A17530
BFB1F8E4D8B23343
3FD4CDDF5BF096AB
BF99C55000C9539C
3FCA6AD12F321CB3
3FC19798A2F994AC
3FD3EB203F3AA872
3FAAC20BA8AAAE95
3FD990BB3926923B
3FDA547440C49647
3FC610B8DFDAF17E
3FC6700F1C27A8E6
3FD21038FD778F84
3FC27F58BB2D1232
BFC8B3DBFA922CE9
BFC13C72A208FED7
BFD1D8ACD4DFC0C5
3FC14286625A3D38
3FD2255813BD4C26
3F5EC04A078B0EBC
BF8466C0A952F51A
3FC754CC1FA8BCCD
BFD78481DA603346
3FDAE04C05921038
3FCD9843025E292B
3FB4FBCABC266169
3F935F753083AB71
3FDAA1F903E262B6
3FE665F35F07CD54
BFAF931AA4710E0A
3FD0F0E13E9ECC33
3FD9A3439C3702CC
BFC15BACE47A1296
3FB02C53F0EDE952
BFB4AA5553998522
3FCF5C95C29F7754
3FB92578B57369DA
3FC952DD1CA628F4
3FAB1BE8E9B8EBC4
3FC48DDD22DB4C41
BFB5071E824C2014
3FCCB02BD7495284
3FACFB707939D2B5
BFCD53070E113ABB
3FD38FCCDC671E9D
3FDF6AC09DEA6132
3FCAC53B9E66B2E7
3FD4460364B96816
3FDA17B1CD6D05BD
3FBBF2000D161312
BFB4F123185DEFCA
BFB42D4A65FFB933
BFC930F8457681BD
3FBD6936A5589497
BFC3EBB81F6BAB1F
BFCD57D8D9F65608
BFC4D823579DF6A1
3FD37A0BDFB22CB8
BFA4A0E91933ADAC
BFC51B0EA432A4C3
3F942DF0D413122B
BFC434481BA29DCF
3FAEC4CF5263243D
3FD32E081B57745B
3F5093B680B013AF
BFB80B81128F23CA
3FD096EADDD9E564
3FB860DE1142C87D
3FB49D8891897FC6
BFBD5E717A6BABF6
BFB309256DA2C5BD
BFB142FD809ECBDE
BFC0387D4A02AD84
BFDCFB64DAF60555
BFC04DED48C33D57
BFD026F83C673975
BFCE06433B132678
3FCB1892C8EFF36D
3FBC3ED4A70BC80A
3FC9581469189D5B
3FCEE51CA4D15B27
3FC93D027F613422
3FCEA55AD868B74F
3FA08C53B5DFA064
3FB52874934FD37D
3FC39A4B9B33F880
3FB895E52F194826
3FB9A24DF328004F
BFBCF34E6BC8D0EA
3FBE166DAAA85FB0
BF8462A464F9A9D0
3FB76D0566F2277A
3F819DE4D7DB73AF
BFB86F2F8DB7383B
BFB7B1F4DA32101E
BFA7246FF6DDED5C
3FBBEE1FADC54AA2
BFB71E3C810FB4FF
BF624FB3718700E6
BFB4A5F94E600A57
BFC12B5645061975
3FCB945BD7972B2A
3FA75C55EC45B8F2
3FC92C3817489BFB
BFB1DEA5BD3E646A
3FB0C082E77B79C9
3F824D5B7D7F31B9
BFB542B5314FAE3E
3FAA35AEE382C6C4
3FCD1529DDC9F52C
BFBDF79D0508FE56
3F944F78B9244E69
BFB26972E04752FB
3FB1E24458499824
3FAED8AB2760971A
3F87624747E82111
3FCBA4621F84D592
3F91AD538AC18F82
BFB5A794AEF92749
3FC2A31F54591DA9
3FC2AE63802D0BFD
3FAE0801D71AAE82
BF9FA36E8497FFBC
BFC499F635D1C90B
BFC5216C20E57DC9
3FCF4204DD347903
BFB01F54AF03E410
BFB041B62DCEF03E
3FC1ED4C5EA856F7
BFC7AA729A514F7E
BFD455A04585454F
BFBE97122ACFE256
3FAD466595053549
3FB281384ED0F378
3FA8D2831A2646E7
3FC3174E3ACB82F6
3FC30B6375F11DE5
BF98F11759E3CC18
3FC27FC2179217F0
3FAA5774DBF508D6
BFC5783DE9C580FE
3FB69B95724292A2
BFD24DBF7B807EEB
BFCD29A7185D43FE
3FCF955AC59E5A49
BFD835508451DEC5
BFB10FBA32406F06
3FE1369E576E7BDF
BFA411A46D323282
BFB23DEEA30B5D56
BFB56E48321DDF64
BFAECBBFB1864A5C
BF6D6987D8FCDBDE
3FA4DEB8B28E8819
3FBCF6B5538969F7
3FB742065FC084EB
3FD129CF0662F090
3FCABC39C21893CB
3FD6DEE6C03DF32B
BFB885E5DD94F113
3F7AAA60664731C3
3FBD0621AD23E50D
3FC819D8C426E0EA
3FBEB28B2D1A3F71
BFCD1198D9AB2C94
3FC59622EC941271
3FB6EAF0CF3587CC
3FBEA2CC9E28CA7A
BFB974CF34DBFFC6
BF948F22C82BFE36
BFBEDF5C9C63228F
3FD08BED5E92B275
BFBB3B5CF8538E48
BFCE86645DA29D79
3FA38B1E2BBA1814
BFD21033DF80839E
BFAD805CB1B1BE54
3F8E8CFCD324D5A2
BF3753AEA8CA6412
BFA4CE62791BF5AA
BF7EDC43E32EB8FB
3FB15C9A09D6EE64
3FD18CD9C2A9884F
3FA3DD75668976E2
3FC5928DE1AA7F70
BFC5F6F5C0361088
3FC60D0ABFF77C4E
BFB270138E523DBA
BFD5066264F9FFB6
3FB7633731F06807
BFC3089B19A166C3
BF7AA73868A73360
3FD53F5290C68C41
3FC1E377DF09BB40

