3FBB4DEDF48FB468
3FC642C5F8474EF4
BFA81971961A5E25
BFD2F53063751A5E
BFBFFD092AA11361
BFA15BA2681F4E24
BFC0F8B73662929C
3FAAF8EC3A7B5104
3FB815CDF291AD67
3FB1A2B348C23BA4
3FBB18BA8C02823B
3FC5FA0021380906
BFBCAABBAAE67311
BFD221ACC3420990
BFA56BE37DE939EB
BFD5340C618D38B8
BFB6FAE2B4C09180
BFBA9E1905349D41
BFD580F9040D55D4
3FD8A52121B8B76C
3FD8BB4916CA46E1
BFDD5894C1989131
3FB16EBFD13BC756
3FCD667E3940E954
3FD8AECCDC9211BB
BFB42874685CB5B9
BFAF3FEE01A5C77A
3FD0F95002CCB901
3F9C747C7EABAC97
3F83F1899A9DFB7E
BFBC77A47C4BAAF9
3FC05D9F1787DC02
3FC7230700A5416E
BFAF9E7B2AC3A302
BFA55EAB8701E761
BFB5F2912C8DA79E
3FD05D5F00C170F9
3FA43316D8B48C8F
BFC2D9D96536908B
BFBF935FC3B4F616
BFA3BC776A19CF34
BFB9F54A9A58057B
BFC1A85000487A42
3FA28CBBBAABB7FF
3F982D6A9C560C7C
BFCDA52944C7DB20
BFAF1BB5E9059291
BFA82DEE24E135E5
BFC09FA35E696CD6
BFA73496E081B577
3FCE17F122ED6AD2
BFBB0E0958186FE3
3FC3192DCE6F643C
3FBAFCF182B9AE37
3FD14D107EFE37D4
3FB718D1323734CB
BFA9CD075A3C6185
3FD3CBA9A1A47FFD
3F912A9D0C95BA92
BFCAE5251DC6BA64
BFC5456CDC21538D
BFCD486158349F6F
3FBADD42E6AF76FC
BFB97BC446966760
BF96B04908878DFE
3FB0A3BC324AD5E7
3FBE2B8DA26A789A
3FD529A8DB55FC8C
BFC02EC20A5111C0
3FD25A939F59A208
3FB86A4E52736A5B
BFC3651685279CA7
3FBBFA82E87D2C7C
3FBE5693B57EFD61
BFA1699DA871F998
BFC9D780DADBD92F
BF9CDEE0A09434AB
BFC6F083B62D790A
3FBDA560A22C3A46
BFB1C23D51C519A5
3FCA40ED85FFDEC8
BF989F8BCBFB968F
3FE885DD9FADDAC4
3FC14FBA3CFD3677
BF9606B6FE5961C6
BFB8A36FB13DD01A
BFD4A572EBAFE6E3
BFD6743B7BAC1DD6
3FC1492FC9C733DC
BFB9D64B50B650DF
3FC834B741CB2684
3FC8E30F43EABB75
BFB37C52E1CF3D6A
BFCEBC45C0FF6424
3FD4E14D8D518CBB
BFD54A34A1C83C44
BFD3669A9E7C5769
BFED9D07BD8E965B
BFE0016EE0328538
3FD6D9D5DF451F6F
3FAC567D3A3D6896
BFBC59ADC64C5518
3FD07B94E14E0E2B
BF821375D396C076
3FBEE13E9ECC3375
3FAF57282FF4E545
BFBF1CBBCD761505
BFB6AF1D0E83A668
3FD45E6510251132
3FAA2F7FCA659459
3FC40AE9680E0653
BFA7A038194C0160
BFD1EDCB1F22B003
3F871D36C792504F
3FAB1D99C3E0EAE7
BFAE2842EA35686D
3FD24846C0AEB159
BFB07CA5EDE5CC22
3FB4A6033467E699
BFB9DE1F5A8E40F6
3FB19909A6C7D56C
BF84D3BB288A8DB8
3FB22EE9CD63A08E
BFA0EBC50A8B9F30
3FB8B54C5293F697
3F67E28A4E4D1507
3FC8A021DE77193C
3FB492A101EDC0E3
BFA634AF8A1BCD3B
3FA8C982957115ED
3F7395D18DFCAD65
BFCEC9F23C72F7EF
BFD5570C00695C65
BFD26C7EC3D55760
BFBF9AE39B9B5180
3F8D1B3D1D41DA40
3F98E04DB31139E4
3FBE4DF352F36CF5
BFA039C67544D095
BF9203C75FD07523
3FA935618BB62C21
BFB2739FB4E6A713
BFD038C17D0D71D9
3FA016B34AC5A109
BFA7432670572B0A
3FC21A39BD10164E
3FA19C24E43AFD82
BFBBAFE159A1B1EC
BFAAB8C909C9AD5E
BF9EAA7F450496E9
BFB5A7338B1CD421
3FAE26C815D8DA4C
BFC2A8118187AA03
3FD3837ABE8D1903
BFE3F166AA59047E
BFD0384F9CF6456C
3FD25DE33FD5D8E5
3FD154DFA08F013A
3FDB147BE2FA60AF
3FCF91ECA707C13F
BFB4851A5BA0E593
BFB7B70E4999D1F9
3FE0C32B7E330BC6
BFE129DE8B3B3205
BF8FD357557C5E4A
3FB36213F14E8C55
3FBF947DD0E63701
3FD995FFDC18C51E
3F8402B693A563D2
BFC9CABEAAA02727
BF84F4F1D9F782AE
3FC91D2366E26235
3FC651BD61F5BE5E
BF989D9B30F367EC
3FC038545A4A4E58
3F8FD04E3699C50E
3FB2873614B9F65B
BFC41E4AC3C89733
3F88A85EAE6126E1
BFD0295DFD0B58FA
BF8714511ACFBA12
BFA2401D26817409
BF96908C29C4748F
BFC8A062A109FB56
3FBF65C455041360
BFB5622C45026890
BFBD6E970C7685EE
3FC3D95241406723
BFCFC93B0767FE41
BFCA5D7B86333562
3F802D7CBAE69B55
3FB747865168527A
BFB4FE266112BF75
3FC99D9D1EDF3E3E
3FC023951B04BE2B
3FB318CBA8E05E7A
3FAB9A58DC3A281A
3F9800EA35BE52E1
3FB800DFC1FA9464
3FD07515E168BB2A
BFBC70603A52614C
3FD11DF1828EBB19
3FCC2E3F58857D2D
3FA45B6023006022
3FCFF119C8A8FBB7
3F110F1DC1B57963
3FB8E942BE0476CC
BFA581189953F97C
3FAF6FDFE1D26D76
3FC2A25DE3600C2F
3FB8163246793622
3FD07B7B2087B4EB
BF90689A7333536A
3FBFA7CBE16A68AA
3FE415A4C26CA194
3FC67DB8BD7642A7
3FAB181778ED7C9B
3FC240651FEA5620
BF8A6774D945D6FA
3FD07E0DE26BC576
3FCA362657AD90F2
BFBB0563972926EB
BF72A7721F573343
3FA657B141D6E4FF
3F93D09355DDAD1A
3FB3B2A42C9A92BE
3FB2D99F4326C63D
BFE0365A3F3BAA25
3FD8A2B9686BFA24
3FB4DE335191173F
BFE3795E5AFF2A17
3FD9631C041791C2
3FC89B006179C28F
BFD7D49AE1EE1C28
3FF26ADD08843300
BFE37A9760595C12
BFCEBB9AE0C17657
BFF85F3AA8727A71
3FE516AD8BBEE583
BFDD40D7E17DDED3
3FD144A7E536D0F7
3FC960BE9C327B27
BFD50E94426CB70D
BFC37D005BC5789B
BFBB96086A87B33D
BFCA3E2CF6D90FD1
3F9D2B61AD9A019E
3F70AEF1C57FA67E
BFE0397E05BF5CA2
3FC0DB3F40DD95C8
BFB1196F11DB9FA3
BFA019342E85CF62
3FD136F55F930D8E
BFBCA197EAC2D700
3FA1F4D98643A673
3FC06BD09E12A51E
BFD0D686F5522714
BF849F94855DA273
BFC77F75C1782FE7
BFD0B4675B0305EF
3FC58215EF558DD1
BFC1938AA1592B95
BF9C6A347C338238
3FC302BD5F1B9964
BFB3D241D6BA0B7F
BFAAC95299D5D488
3FBD2E336F183BB6
3FA8F092CFA5F014
3FC7F9FB592738A9
3F9580ECA4838281
BFB7BF221451F18F
3FCBDDCCCF510B8B
BFBC33965A74EB8F
3FB61C803E53CDB2
3FD64798FB8F0211
BFD06CCD9E2DFDEA
3FB5C70811C752BA
3FD44A4E2221E8DE
3FB3FE7464ABD12A
3FB5B20E2F989EF3
BFC41E0A41A261BF
3FCA1536C8E9E93D
BFB3317DD167105A
3FAF256CA1130A9F
3FA1606418D93FCD
3FC639577A0F65A4
3FB1FE47433589D0
3FD09D97A0452F5F
BFCA88ECF912251C
BFC36812A370B2F1
BFC16095411A5190
BF8F71245A7D4F0B
3FC16AB697AC2E9D
BF77DF172738FEFA
3FC1959B5D3E1E9F
3FC7726E5C7F06F1
BFBBA681B47592FF
3FB0195794E7583E
BFD5C93EA2D2FE3F
BFC70055FBB517A4
3FA6AA09D43F31EF
BFB10B0F52AE4DB1
BFA93F47E978AA0B
3FC8FAE4A2AC67D2
3FB0D266EA9ABE07
BF9146B7CA5C2F2B
3FCC066ED9FD61EB
3FE18B4E6263A267
3FC745B6D8EF9AD8
BFD95E0EBE89BE04
3FA705867CB1567A
3FC6C8B982423A0C
3FDB23CFE8E0FF8A
BF8900DFF9D03B16
3FBDFA6DEFC7A398
BFA935F732D1E464
3FAA126C134E915E
3FC244955B4677B4
BF745A44EFF41942
BFB3A5D2620D105F
3FA218FD2707ABC6
BFC027E39ECB5CB5
BFBF1FBE0B68E9CE
BFC632D61621AA75
BFD54F47BBD65A6A
BFB70F258CD7695E
BFBA04F2D8FB036C
BFCF49DF878F80E7
3FD31BFDA201C801
3FCB3D0EE9A7CEE7
BFBC8626CB1AF0F2
3FC0479946B87629
BFB80B81E94EB8A0
BFB01C0066AD3329
3F930F2866FC6368
BFAA19860DF68DBB
3F472245FB0BFA5F
3FC7C7E06961C369
BFB304AB8B5E9867
3F90475655CD1115
BFC0687925B0BEA4
BFA3D60BE5BC5CE8
3FCC7B89384D795B
3F8DD14EE799ACBA
BFA1EC2F3DB039C4
BFA13E7D3E443361
BFC8D242D86CBE19
BFB42B810D30C011
BFB684BA0E842742
3F75948C698554BE
3FC71131154BC19F
BFC939ED212B1DE6
3FBE6424C2AD0E41
3FC3B104445D5216
3FCC7E1C7B0AE333
3FD177AADC621620
3FB02A7A5200A8C7
3FB7E62131A8EF78
3FAF927085792632
BFB4A76965F5275F
BFC5B14BE7DFF8A4
3F929FA8516D5AF7
3FB0FB2BAFDC2631
3F8E8FCD92F05D20
BF92F504FA3AC421
BFB6B2CEF4C5395B
BFC5CCE637ACEA84
3FB202C62DF73429
BF6DB0244A8D16FF
BFAFC4B6A8C90C79
3FA731F317395790
3FBD0CBAA37F7683
3FD07A13417B4A79
3FB61D8B2B41CD2A
3FD1359542F2C3D7
3FD5851B7D89EE81
3FC194A7C25148C8
BFB424C6DECC28B8
BFD8C952845C45A6
3FC7E0AAA52FA4DE
3FB303F04F88D44F
3FA41BDE57E49870
BFB6184977EE2334
3FB27C2061F53D84
3FB85756531DDF39
3FCE1E46FD6A7971
3F9795D843F95414
BFC61130FFD232BD
3F8E2692BBD9E05C
BF97093258C2B9CE
3FBE4F9843AE2AA0
3FD5C2643E18139D
3F7C072766A149BC
BFDAB74DBF508D61
3FD9CCD69D5B1A2D
BF92E5F43B25C5E2
BF96094CAFDBFB3E
BF921643E4306BAE
3FB8D49D50B34BC7
BFA437B09B68D1A6
3FB695A3EBAD0CBE
BF995C74751CE28F
BFA9ACDA1331601F
3FB8FC64BFF31F9D
BFB05E22CB062330
BFBCA43904D958A1
3FBADC84D0B4B8DA
BFCB1353596E5B52
BFC1BFB31E4FF739
3FBBFEA60DC63C3A
BF95D6393225C206
BFAD2C04C0AF073F
3FC17CF6F696F5A5
3FC68218DEF416BE
BFB17AC7716E2C58
BFC56C623E6392F7
3FAA75AD812D1130
BF9A58C162357F3E
BFB63BAFAE83E176
BFC5434FF6627266
3FC845F5D889C464
3FC878A9CA69453E
BFC0862A510C620E
3FA84D83159EA2C3
3FB2BBFB4357C38B
3F939814B4421172
BFB973A18D58EE84
BF97DC1A1CB6C4F9
3FC2218F9CC09587
3FC9418BE67DA2EE
3FB2F858C1B81BBB
BFB532233DC7B6B8
BFC31A02B591F2B1
3F93BB29365A2F20
BFA107238AC99D17
BFC0BAD53E0A7CB1
BFB230EFB707939D
3FB3A6A5C6A392ED
3F98FF865D7CB2D9
3FBBA99A6DA9FC93
3FBBCA0F2D4486C3
3F9782E6FAA06FA2
3FB702F6D55EEC9F
3FB6E8EA0ED1FFE8
3FD99FDA5B2AC901
3FC69454F6A766B7
BF9E5D40F8C3A0A9
3FC2245B291B823D
3FCFCAF4049F2118
BFB6740C6C4A0029
BFA2366516DB0DD8
3FE2B88150CD77ED
3FC71219DDF7977C
3FC3FF706314775B
3FD426F91DE395BC
BFA44BA5F0BFF11C
BF904D7C09BBC08B
3FBF24813EAEE75F
BFD65E49A1DF8E45
3FCD119DB7358BD3
3FC0CA74985850FA
3FC67591671B1733
3FB88FBD77C5337B
3FC3CFC0879A12BB
BFB5CF42C8D26C49
3FC0238E6508177C
3FB02EB7F95617BA
BFCD918A1618F113
3FB4E17D081374D2
3F99C9541C61E070
3FA2EDBB03F7865F
3FCEAAE94D3613B8
BFB4C2A1A5ACA260
BFB9D9AA2AE1551A
3FA189AA63406C2C
BFC251507F9F4783
BF9525C2DD34CEEA
3FC355C3001A5719
3FC1943A5F2178A1
BFB74A352D5E5D03
BF95B0F9B288FEC2
3FC37374815C360C
3FD217027B04831C
BFA52BFFB8318A3C
3FC412D6DCC61421
3FC7A75FC059F7C3
3FBE7AFFD0853E18
3FA9B7FE33A218EF
BFB6377993EAAE09
3FB75E9DF0157C3E
BFB7CEE6D866B3E9
BFD19E75E1D97959
BFA83271166DAAA8
3FC3DE61095A46C8
3FCB8C8C3FE9CFE8
3FBA4C546C68DEE7
3FB923053DAC88E0
3FB625D3CF1F8D64
3FCA0EC9C75ECEC2
BF78F8441EE8CE60
3FD288B01D13B717
3FA9A5E90841C2EE
BFC94067FA0F502A
BFD62554830F1399
3FBAEDCCF794F773
3FBE5E968E4C5E7D
BFC05F41C47087D2
3FB600C1C6DF4D02
3FCB114C18317A21
3FA8F3E1B998E86F
BFD5320098AC33D0
BFA935B2BF5A7369
3F9EB707BE90490E
3FBC02CA5FB51C57
3FC0B09B68D1A5A5
3FC6594AF4F0D845
3FD88A0B5C29A18F
3FB047C86B9422B7
BFC26FFCE81D8B2B
3FC9182895CB58D9
3F838039205D17B3
3F99D95A79C919BA
BFF503547E06961C
BFFEE481BF8840AC
BFC9168B5CBFF477
BFE3D5E940A0DA00
3FD15040F5939574
BFCF539A4667C35E
3FDDD850F9ED9748
BFD9A59E5FA70491
BFCDB5AD208A0E36
BFAF13DD57897EC4
BFD45A5B40429048
BFB5146AF10FA234
3FD70EDF0081044C
3FC610B0A7523EE7
BFBA567D0F4A4AD2
BFB6CA2F38A7BC47
3FB2D5718C09632B
BFAE48961BE0B130
3FC4113A3A0D97EE
3FC11A79280A0A45
3FB5F7A3651F697D
3FB50B2B2C539B08
BFC8692385155323
BFC2A9193E6A73E7
3FA2A367F98E76D1
BFB9FD96C42736D1
3FAC6F8675A57397
BFAD6184AA493F39
3FB1A5E42AB763AF
3FB051413B33B2B5
BFC67036C9C0A8D2
BF5649E3A3D3DA32
3F9BFB806971DE95
BFACE901B6B96511
3FB8FE47EF0200E1
BFA45CD89E114D85
BFC0A76BEA33E5E1
BFD6D83042BDEAB2
BFBF086C353266DA
3FCBCA862095F7A4
3FBEAE520D68F435
3F8439B4AC9A7D44
3FD52E86BB9B7714
3FB033E12E02C7B1
BFBC748E4755FFE7
3FBE242D86CBE195
BFA6306D053BFF0A
BFCFB86D195DF4FE
BFC75B7688C8660B
BFD06C5802757B2C
BFDE8FCF0002DA25
BFA53333DEFFAA45
3FDED22F6243411D
3FC06DCE39B456B4
3FC24CA1435C203C
3FA619F879A3DAE6
3FD02EE1297B238D
BFD0A3B8A19C9D5A
BFD30A41A261BF38
3FAB8FB99BED86D7
3FBCF9A2EEACF165
BFC448B63CBD7597
3FB2DF4BAA786415
3FD64B33DAF8DF7A
3F711434955DF5AA
3FCF1DEF3EBCA93E
BFCBD84BDBF68B62
BFC14F1FA2DD9014
BFBD5493AB181C2C
BFAEE94FE545948A
BFC65E43D81C0B4E
BFD12C9660FFF518
BFE4F39CBFE9BA6E
BFAABF937E4C8C20
3FD2F7D5A48CBCBC
BFA5272532EA630B
3FAFD1C65BC476E8
3FD05887A0C8B7EA
BFE2CD960031FF01
3FC67CC4E21CC02A
3FC2A7E4E0EABBF6
3FB694B75CA3191F
3FC25744B566A9AD
3FA7E0EBE89BE046
BFD5ECF8DC753663
3FBB95D4BE07E2F8
3FBBA3EC02F2F987
3FBC8F61B24C98E0
BFC5F40AA951479B
BF9CFD0A2C53C5FB
3FA5439830380123
3FB3F7C74C5A4BA6
BFBF325DA0442DAC
BF9F7005CC72B4D3
BFBBE692F189C591
BFC555178989811E
3FC8A507E1CBB779
BF8A330C71D35700
3FA56E772C066E2E
3FB2F2178A0A5A77
BFBB945EF228D1DB
BFBB0973F21530BF
3FA8B93FD228007A
BFC3F67C48A5E126
3FC7B55B96FF8B66
BF925B19563D4E6A
BFAFE32CB595A396
3FC8FCC044FF0D92
BFCB5A5E85C754BE
3FC0392A02B2E2C1
BF705E6C9CE14CB7
3FB024320E70054C
3FCF9579A45BBF6E
3FC0A2C669057D18
BFD873700474D9C7
3FB325FD14BE2819
BFBDAA90B7C8AEB0
BFA036C563F7CC2A
BFD3B8245EAF0CF3
3FB9FEB3A4B2A75D
BFC45A3CA1F1D7C9
BFCCC81AE157C940
BFBC3F03201AFD87
BFC200CB81F40B80
BFC9812F2A0F1D29
BF91CD2084AFD296
3FB3E7395F9D1E89
BF9030BB89AE6A0B
BFBDFE7109AD7DD2
BFA3EE014FE13ECA
BF6E76020FCFABCF
BFC6ADBE7F2C300A
BFCA01AAFAEAED49
3FB69A56ADE1A521
3FB8AA1C1DC2DE8C
BFA8E54D772C3161
3FB5439A8983A1E1
BFCDBEF822E6DFC8
3FC64264E9E48AAF
3FC81228611D2657
3F7B63FED80CC6E3
3FC03B8C888F0541
3F962CA24A6D368F
3FB382B4FB9FC909
BFD1DBE5C46A7DA2
3FAEEE2DC58B0F12
3FCE2D08E226D125
3FE2769BBDB62E7B
3FD23827032421C8
3FBD8FEA6E485D11
3FCA54BC44EA3FCF
BFC954F2B6157B3C
3FD12CAB240598C6
BFCEEC12F8AB2202
BFCB8B8C3AB65F4D
BFBB66CBBC00A1BB
3FDC68C982957116
BFD0F7B3E0ED961B
BFB30617F20F268F
3FA6D1435412A6CC
3F847AB65490501A
3FA569684E72FFA7
3FB14D27D0FF6175
BFD3B84F7CBFEF19
BFC60AEE5B11F474
BF95D63886594AF5
BF5D70E9A21A9C8E
3FCB05C0C9B43E8C
3FB2E20E527E2722
3FA174DDF86E3B47
BFC816EC55A929DA
BFC93303B8714B1C
3FB8AD3252B8899F
3FAA39F975F829C8
BFCB7FDEDD7088FF
3FCFF2423CBB7231
BF948B5508451DEC
3FA4E219BB120F4C
BF8A7E06EC027220
3FB0141EF0DBF5B5
3FBC945308BB9064
3FCBF5F09D0B9408
3FB050A88EFFE2A4
3FC2309A671EF30A
BFB487E612EEF00D
BFD02F0B8645FFBF
3FCE158BD865DD2A
BFC0EAD41ED0A59F
3FB5E8726FB417F5
3FA3A3F613EDF38E
3FB7F20718F8F54A
BFB1EEEC0678EAF8
3FB8B59827D48553
3FB7BD06B11F1C50
3FC021C6794B9B5F
3FB638382ABEC578
3FC30F28FD4F4B98
BFD23F82E248092E
3FC0A044AE85B9E9
3FA5A2ECA98BFFFE
3F92A437575A2EF6
BFDB161D78B6CB03
BFD3F8FDC2B8F7AE
3F869FDB5220B42B
BFD0D240BF8DCA03
3FAC293A3606CD24
3FC2B0743C11FF06
3FC2AF94ADA18E5B
3FD95DCFBEEF9478
3FCAD928BB351FC7
BFB4A5C851121658
BF73C6EF1246FF6E
BFC668E8B73911C4
BFD6E89C007C26C2
BF4D79629779D9B6
BFD433F1DF80D984
3FDC6DE40929746E
3FA0658EA51EDDE7
3FA92ABF9C37AE98
3FF4DBF2396DDFD7
BFB7969989FF47C9
BFB148A58B3F63C3
BFED14FC610F0E91
BFDDF4E874C8FFB9
BFBD92DD11E96183
BFB02D4405E94E0D
3FCCBA2F664A0BE8
3FC4F7F935E1635D
3FB960E8A3171BD0
3FDA67C7444CB611
3FC5AE8B9925D653
3FB5113B66B3684D
3FCCFEB4A66559F7
3FB00CD57B72113F
3FD033C72212FA59
BFC065F0E027728B
BFBD3F5D38146E77
BFCEFB84C622E486
BFD16A499FDC28E0
BFA2A46DB30BDB80
3FAF56CAE7F03EC2
3F7C4773DCF18818
3FC28F67FCE97524
BFBF5DC583017CAD
BFA9A2A6DE7BA0E0
BFBFBD3E6469B6FE
BFAA34D1C3D785B8
3FA2421AD79CB481
3FA596CADD337751
3F936CE937669E9B
3FABF95A1E847A79
3FCABD3798F3816C
3FBCEDF9424BA9F8
3FC9914892400905
3FA23ECD9B28E5D2
3FE134054030C79E
3FB321F59E2747ED
3FC10845C9B8C630
3FA17A7B1B544450
BFD30F935B6703F0
BFB0CDD0ADD7EA0C
3F93DE883619ED67
3FBD20652548B9D8
3FB16A3A8663B1D6
3FBBB8A045046BF5
3FD390A782906898
3FC6BD70B9509920
3FC57911B9BBCDF7
3FD4A7BE5FF78C69
BFD1DA1BD5489C51
BFA2013FC613A01B
3F7A20AD7497D778
3FD269E47FF1D2C1
BFA2891B472E3CD4
3FC087545D247352
BF6538DC6A799B77
BFABEE68FEC71ADC
BFC5B96EA11D7180
3FA857CE73152079
BFC5A0D76602E93E
3FD5EC3384E7B0D4
BFBC505E1158420B
BFB74868CF774C12
3FD3069FA19B70B4
3FDFE2B43FB826CD
BFB6D1AC04AB3578
3FAAD1CEEA336507
3FD61C7E1AB8122B
3FE2F81FCC4E21CC
BFE3F57F081DDBB3
BFCE91E6C7CAAF66
3FC06534A29EFBD9
BFC44E17FB745511
3FC8AB0E20AA199A
BFC23C25F608DB46
3FAFF3391D2D0C7E
3FE15B7A4469BC5C
3F7CA730052B6305
BFBCC2C81126430B
3F60960A6DED1872
BFB71DAD3A0A67E3
3FC14B0DC5657A58
BFCB61C85C7AAA40
3F9E3F384F26D9B4
3FBE4BCEB5853284
3FCA575B9C0808E3
BFC4E87FB0BA478F
3FD0F9C7C220F746
3F98ABE9FE35FB65
3FB9491E011CE08B
3FBA58B9D57943B9
BFAFF8AFA9A65717
BFB2FA40F9447A02
3FBF9972D839BD66
BFD89BAD04B068E9
3FC0078B39AF792A
BF83D04D8ACD4DFC
BF9A0CA859FBC9E5
3FA0968C9EDF53B8
BFC94786BCC81CE5
BFBF2117D2AF8FD0
BF96D8B13190C6B7
BFCD5F4864F39F9F
3FD191844198A6AA
BFA38EA823F5FE74
BFC02EA4832C9ABE
3FD022613E5E5F87
BFC209EE55DE83D9
3FAD211E07D2DD32
BFAA735FF4067793
BFC3BB127AABEDAF
3FC7E7D942A6EE97
3FC0FEE73BB8E8BF
3F92E8457930EE5F
BFBF53B45D145827
BFC6B915755D2448
BFBBC1473299854D
BFB5B1ADE27BE0A1
BFD99BB8E360E2EF
BFB8C7D19055F906
BFDFAD5E9D6F3C23
3FDD0362F66F5D86
3FB8FE8C37865418
3FD1A07FFD3B5495
BFBCB24F7304DA5A
3F4FE085914EF256
3F80E24300B0AA01
3F9A4B4AAC20AFCE
3FB3E9660AA0EDCC
3FD1E6B144B109F9
BFA73FB95373449B
BFA10C2D5FDF8E9B
3FC0CBA8F5D808EB
BFD288618327BD33
BFD15EC3C53C34BA
BFC197D3C6BC1194
BFD72225E4EBFD6A
3FC9CD77C284497B
BFC2F3458773A742
BFBFE5072B4278F6
BFCA7BE63FE57337
3FE5A1D4205331AB
BFB4065FEB7808A5
BFDEED80E1E7BC11
BFDDF03F42B6080F
3FA53FA028FFD38A
BFF1395068CE1FB3
BFAF7193C1128467
3F759F1B8EA6CC5D
BFC0DE758136765F
3FA06D5E2752AA47
BFC59DE746A0A34E
3FD79717BEE38018
BF8AA8AAD987F126
BFDCD4721D28DAC0
BFD141E05FA6AEAB
BF6E34FF1040EAD7
3FC895045E897839
BFD168FA29FD298C
BFDA04394AA46900
BFC404F61E7FC7E1
BFB8C9902C5D8110
BFC1BD090A6ABD0D
3FD34B35BE27EE5C
BFB9BED0E0ADAA48
3FA4A9F2574AEA8A
3FBCF7426C36341A
BFB9103353EA62E0
3F8BDE4A789F231B
3FA1DF44C9889FA1
3FB4FE05D4D630A4
3FD56703FAE15D28
3FA55CC756405382
3FC992FCC7665B7F
3FAF68F18614AC8A
BFC7ECE7CA542195
3FD570633F6A791B
3FD401EA506B525E
3FCD67606169A764
3FC906AC81FE9D54
3FB2BB558110E1A5
BFBA5D2AFE5B652B
3FBD1E86FEB75597
3FC1347FA3FA1AB9
3FC1892BA2C6131F
BFB6D0270143187B
3FD90D43E0549401
3F3597A47D748938
3FD1FCCB829FD7F7
3FD19DAE1B86C42A
3FB545F74150BE70
3FC7A1B51C01127A
3FD11A8DC01C902F
BFD124E3039AEA27
BFA4ECFD18EFE601
BFC8D84880F8380B
3FB111840BE8C175
BFCB68A50507A6BD
BFB89927AEC5A5BC
3F7D2224C302F47C
3F6ACD4B4CDA7933
3FA44A769BBDB62E
3FBE5DA6236ABE3A
3FD80D44008AEA54
3FE1161961D0D570
BFA417C873A1B84C
3FCE516C18D7E834
BFC1D4A8F9B3E098
BF8236F9BC441380
3FBAD40072C19389
3FC3B2B589E51BA3
BFBA82E44B6E935C
3FDBCACC418C924A
BFA77E9358E2C532
3FC413931A4E8AD3
3FB3D515F183E654
BFC8AE44F755E260
3FB9C7D19055F906
3F83AC50D65C42A1
BFE293935ABB3779
3FB028EC8853F6F8
BF9D8FD473E02193
BFAD9069C5159E4D
3F987D8C72BF9023
3FB946C02DD7FF86
3FA4019F6763E75B
3FA02FF134602EEA
BFC0D2F875721CFE
BFC1894D9C151EF6
3FBAA17052A365F6
BFB04C44513DB542
BFBAAF59497264CC
BFA7CD00FA25F65F
BFD55D22652FAF9B
3F98ED423833CE0E
3FD7793C61B01E40
BF807FE9195EA0CA
3FD6D142BDBFBE9C
3FB43B0462E6293F
BFBD95BF447900C8
BF9DC713A54E58A9
3F87E7840837DCE6
BFB00E5F943A342E
BF853582C3BF3205
BF87999B4718C345
3FC49B06004A27C1
BFB82853B12D0923
3F9AA693FDF93F9C
3FA92DA9DC5CE2AF
3FC79083456F4AE7
3FAE16DB38CB4D9C
3FCB0D1C9E1B5E80
3F806A2C6E9DED66
3FB57A71354C680E
BFA8DC8D5F23A6F9
BFA7EDA8BA73D9C1
BFBB71BCDBBE0158
BFD0377A1F80CEC7
3F9F16F0DD4D4D91
3FB6C32F6A25E394
3F9A7FC5DDF035B3
3FD236AA4B9884C7
BFD5ECE3A35300D9
3FC07E6E5A7BA18C
3FC3131E8048BAAF
3FD4B9D604D9D97B
3F829B7896EA92B0
BFC5D5BA064B9E8F
3FC0C3AE55935A65
3FD9368FDF05B475
3FBF6A0F9345ED75
3FC396279F2B53EC
BFCBC4C6C3F4361D
BFD79D0635A426BB
BFA644FB06C6EE91
3FCD5A87757FB3EA
3FC34BA646A62CA5
3F9FEE2BED18C7A2
BFC8D8F7A86D9CE7
BFD86C237F361612
3F9EF2BF24C383CE
3FD34E5004A52B48
3FB1764B60D17C09
BF862D72540565C6
BFDA8070D3A7B261
BFD32EFE453FD025
3FC194237880196B
BFBAD579C49215C2
BFDA500220EC89AC
3FA41CD3F636D37C
BFC0986A44975EAC
3FB3AFD59B278E39
BFC452CE439A5E91
3FB0FE88B194E2FC
3FC0DEE0E100E151
3FC4DFCEDD1D51F5
BF9453F4F4B41C7D
BFC486E8E7E0797D
3FB0401A21695C3A
3FD1A3AB4060176D
BFB4968EA244B8ED
3FA404BAFABD4AFA
3F89BB30EE09886A
3FC71E27885A2C1B
3FBEC5954B00596C
3FA44316D6055AB3
BF7C059F7C31A9C6
3FC1DEC7E1808E05
BFD33177BC7A194C
3F815AB786948431
BF914163779E9D0F
BFA9181C816AF99E
BFA6CC41E27885A3
BF8405B2468EAFB1
3F989AE7F84C5772
BFB57C134BE22BAF
3FBF041BC37FF1FE
3F9287B494C7A2C1
BFC759033BF4A2D5
3FB3FC394BFC01EF
BFC7F8811B1D92B8
3FD33897204295A7
BFE22399623C353A
3FC21D4B7FDB2C8C
BFD6070CA4283DE2
3FAFFE6B556389BD
BFA845D92824E238
3FD301A4B04E1105
BFF0D26A9B7F4CE7
BFC4C3BC984C3C9A
BFB11DF6B5FF55E1
3FD66D0C5D5B7AD0
3FC546E69951A031
3FDDED115B1C3062
BFDD4769A103704D
BFC0AF580753058C
BFB4EA894B42C97E
BF94A7E891CF4AD6
3FA24E27D632D20F
BFB258A70B1C3DCE
3FB4041CF025C25C
3FC05051FCF7E2D0
3F7B81AE406FB1BF
BFD3C2A4C03E4911
3FC1F5517B47C9EE
3FC2569146B9CDC2
3FA25394FD7D99B4
3FCDF5FA17B3A5DF
3FD17AACC46EAF60
3FC8E0E0C074A4C3
BFC5E127E31DF203
BFCEAD7C3A0D4208
BF9EDEB2A85E587B
3FB7ED661F6EB037
BFB0706CCF8C19D4
BF892CA9D7297214
BFF15454152B0A70
3FD307AE4A2AC67D
3FBCCF47D14FE94C
BFFDC3F847A4DA3F
BFD21590600A00E0
3FB6636D8DA21492
BFC2B2A8894B98B0
BF89EDA4B3A90F58
3F94E1CEE784332B
BFD4AAED5EBDA592
3FC1DEFFBFBE4677
BF86E9FB05F02EFD
BFDD83E3E542398B
3FCC9E487FF68558
3F8D2E8B02D2EE24
3FD225B63D3E4EF0
BFDED5A8A90115AA
BFBC4FA05143BF72
3FC10037C8C42990
3FA7EA5218D1881D
BFBECDC9A1F507D4
3FADB978064BF475
BFCA0A268A0277D4
3FB683B830DE6F37
BFB163022DD7A9A0
BFB9DE4240167085
3FC2D41580F0AB4E
BF89EFEC8C85B4E0
BFA13328CC51FDA4
BFB10FBE63FE5733
BFBD5856AE378B5D
3FB7DCE51DD1772C
BFA347B677F6B1A3
BFA8A9D1CB0E5BB8
3FD26191C05C510F
BFA418D2DFB65E76
3FB09158827814E5
3FB388BDD436788D
3FCBA177897965F2
BFB0C74AACCC7C45
BFB877A324B2BCD6
BF99737B4CD26B9D
BFD175981D17BDE2
BFD62C029D134BB7
3FAA30A711D23A75
BFD2B6221B32E154
3FC051342520A0DF
3F8731B9608957AD
BFB541974F118B18
3FCE59A2DE91C63C
3FB8556003CBBC81
3FC6FCBC3E344329
BFB2ECA6B1DB03F2
BF734310A0E20D51

