BFB15B1E33C7ADA9
3FDB0E7B22B60D6E
BF440F161D78B6CB
BFBD03587A149914
BF50831A7C2D2222
BFACCD296904FC3E
3FA84E16B954F5D1
BFA22AB1AF6507ED
BFA912F4CF4A558F
3FD842B65DF57E9D
3FE0DA1361B1A0CC
BFB2282913F5804A
BFD94B60DC38D081
3FB2B4D80E7461FD
BFBF151CF2AA011B
3FB9F4C4E3745918
BFC49CA5E887686A
BFBAA56B090D6FD5
3FC6EE40FB47DF68
3FCFAF517C497CA1
3F9720A08977E366
3FD6CCB65C47FF73
3F72D3AA0BACB179
3FB43B66B3684CC6
3FAE50364E45B33E
BF90FEC5C3433636
3FA8253CD06AE6FF
3FBEEE33CFBB3EB0
BF839D812FC06205
3FD4C4C744CD8F6A
3FBF98209DAF52E9
3FAE8FA2F5B8D447
3FC2C50C64117777
BFA0286D3186B5BC
3FB1C54670A7B2E2
BFA79D431C5F5C31
3FA2F5334856DBDA
3FAB8980C7BB95EE
BFD1FB05FAEBC409
3FCC2C4329F6489C
3FD1ED4923E059F2
3F8945F9DF548ECE
BF4747DAB517CF55
3FBB8B66501617EF
3FBCA9084C7FB56D
3FAD1A0666768192
BFBC13D1C40278D6
3FB378E6F191275A
BFBF3E7632615129
BFA36376F2D09788
BFC51D0E2DC02CAB
BFB81D920C31919D
BFD1AC54BCF0B6B7
BF9933D7F3C76280
3F931B727740D431
3FB90EDDE954C2D0
3FB6AC9AD32A89EC
BF950CE2E76B5E9E
3FB2066574CEDEF6
3FC11F96DEA94330
3FA91E81F639D894
3FB2BD931DFF6F61
BFBD609F7D08695B
BFBBCC0AB0074442
3FC31FD65F1CC609
3FC6A2778EACD68D
BFB59BC69A83A465
3FB23EC537AD1577
3FB089A504DCB3A0
3FB853C0C75AF2EB
3FC503683F598730
3FB7465F5FE1E7E7
3FC5A803EA9B3EE0
3FC6E1B6E9B69279
BFB4441909914E47
3FD34C8884487996
BFA2488E643157E7
3FC733E763261513
BF949E1350EAA92C
BFBE3F47689F50BE
3FC93D59FDA257AE
BFB3CD400F39AECD
BFB5D95AA4BC377E
BFC7DF28EFE3524A
3FE81A3A1DB31947
3FB2FA6EF17A5632
BFB01DCF73C62060
BFD257839F874457
BFC4873E7835C6B6
3FC778B3700474DA
3FA544A5F74AFAA5
BF9679DF3F153EAC
3FD45C16814BC4FA
BFA135DA5779E473
BFB67F8ACFA747AD
3FC5D62E755E50EE
3FC433F42352EB5F
3FCAD33B3B6A644D
3FB67AE4CD9F8597
3FA747DC0CB0BD78
3FD19D899DF8F9D1
3FC305C96D9CBB8D
BFD186ED44917F6F
3FD021D882629B56
3FC0DE605D8DCFB7
3FCA67E806392A18
3FBAD2CF70402EEF
BFB7A40E67A1CFC9
3FC060DEBD0F3F8E
BFC4BCA0DAAB87AE
BFB42DF17FDF893D
BFCD5683446D9834
BFC159507E47AE95
BFBC01C7AB4FCF76
BF95BABD80A988A5
BF754AED8F0F270F
BFC44EE5964754A8
BFDABE8AEAAA2D66
3FBDCC4614366DD0
BFBA0684FF58BB2D
3FC0A9B0FE652040
3FB1B68E71F33770
BFB543AFAD2C4888
3F9721FF842F2430
3FC44A4345242172
3FB3D1FB34EA178B
3FBC1F3FB64E5B2D
3FD4A12BC9B26619
3FADCE11706ACC27
3FD3585E7B607388
3FE05ED329DE1FDB
3FAC90EE24605C8C
3FA3B0D51F81A587
BFC2475FE5EEB1CF
3F9663EAE109F09A
BFCA295E1D41AF4D
3FC707228916EA7D
BF76FCD4268854F9
BF92082AC6D30DAF
3FD0F108C144AE5B
BFC88875C5540794
BFBAE12ED9874559
3F7C0AFB30B859A3
3FBEDE8FEDC946B0
BFB0CEE1CFE936E6
BFC546B484D76AB6
3FB818D3B675F34C
3FD7A8DB0016504E
BF813EFF6F366EA7
3FBA9214950D6DD2
3F6C8A4492004824
BFB8ABAF70C666AC
BF931AE838B90418
BFD866A941D83C98
BFCA1C4AE454D3C2
3FAD27C947B21B46
3FBCBE924C734B26
BFC524B0231DE747
3FD3CBD9F325FCEA
3FD52DC890272A10
3F6855B1E33C7ADB
3FD38BFE5B3A3860
3FB393491D804387
3F9B5218A694FFAC
BF985EF42C374089
3F8257E69BD5DEEF
3FC0815E39713AD6
BFBCAC2B6C955490
3FD03440C4964780
3FC2E39713AD5BEE
3FC92E7E581FA6B9
3FD1C931E2A627F2
3F84E37C66ADDEF6
3FB51F48C596A299
BFB7BFEEC2EBCD6E
3FCCE23020DA1535
BFA24DBB1ECF78FA
3FB03B5469E4A028
3FB77F4255650C49
BFC098B13C4D8E28
3FB1DB2C610700FB
3FB7021B8E25F304
3FAE2D25272BE8E7
3FD53B463CA54CD6
BFC5F5203D8D2949
3FAA52DAC35A8837
3FB4A16037783C52
3F99FD882B881914
3FC4CE4100A64320
3FCA66DC428B95CB
3FB0A623EB97932F
3FCF171545618907
3F911BDD8125039B
BFB820B3D4AE429E
3FB25130CA224D88
BFB2649D0D976D44
BFBEE49E24C3AEC1
3FB0E08713DAFE3E
BFC7487D5CCD0A8A
BFC5B6227BD5E44E
BFB5E0D4EC80F22E
3FD5C30C4431075F
3FB7FCB09533AE58
3FC7E504262A6128
3FB7EC6D51113F98
BFA6C15DD8CE37DC
3FC0748F1E1594BD
3FBD0360B29D4BAB
BFAF3EA17B655113
3FAFDE5EF07B52B2
3FCCAB0AC5ABC642
3FBD30EAAE8A169A
3FC71DFD4108DECC
3FCBCF8C44C75A47
3FC5242E887E9430
3FCE231AB73B6B10
3FB5DAE5136A95F6
3FB25E4153DD4CCD
BFA154902526AB10
BFCF003DBD7ACA4C
3FD5940FC1E9EFC8
3F9544363ACF89C1
3F90DC8754F3775C
BF854AE02315D9B1
BFC807B931E5555A
BFC810D09D3BE589
BFDB49CCD2AC09DF
BF7C672EB84F3C53
BFB034FA5DA9A95C
3FEA9EC04A078B0F
BFC9F47156847113
BFC0D71F61194A7F
3FE0FAECD07852F8
BFB100D96EC6B22C
BFA2B7F5FB196658
3F7012213FC0B53C
3FB7A2FFF4C25F36
3FD138A1DD0A06BF
3FBB76A852EFE703
3FB7727009FE309D
3F9F30B6563DCF43
BFBC1ED2FEEB0217
BFB71D7B90EFFCD3
3F9455AB2D3FD42B
3FD50A6182D1D6F8
BFB77577A654BDF2
3FBA3B5D2346AC0C
3FAF7892E3C7E608
3FD8BDFB4301DD50
3FB8C51B27A3B2F8
BFC1C719DA71A60B
3FC17B3DA3799746
3FB2A12D61B800E3
BF91F6B1F88B169F
3FC029DE1FDB679A
3FA2A6299FE18744
3FD33ADB32C11D6C
BFCC9C9F1D1132D8
BFC084BFEDC1391B
3FB507B784662BAE
BFAEB24C6DECC28C
3FB2A6F7D1076F0A
3FCEA1F1417641FC
3FD5784EFBE695CC
3FD00488453365DE
3FCF23A246915EE3
3FD71A75213F3FDC
3FC7AB4A05B29C75
3FCD946943907889
3FD91010187BF7C8
BF98BB47EA247682
BFD137AB3D05191A
BFC330257732E75E
BFBB701A9A351FF2
3FAB575378F8E52F
3FC31F3C0569CC4C
3F9E451CEA9C6B86
BFADEF766FF3D8D5
BFA5DCFF49F79AD7
3FB9222E53249536
BFBECA70D1FA3337
BFC0891A9B61C5C3
BFC6F0637FD725C1
3FC7A067BF01073C
3F910B59A562D085
BF9E2E53D061ACC3
BFBB9B8D0EC6C247
BFC81839B2A93518
3F7DF388A3522A19
BFC5EB577C68B144
3FC35696A51D864E
BFDCC5DC62ECDF3C
BFCEDE92DD67CF9D
3F8AEB31BCBB87AB
BFD778119F0ECE7A
BFDA383E8018692D
BFCA836361CF27F1
BFE30FCEAA1C9E9C
BFB3A016B64FDDB9
3F91C4D5DD6CAD27
BFB6B5409419D2E5
BFC5138D3B1178F9
BF4A42CC585DBA1A
3FE1E7B37D9B6145
3FD13FDFFF5991ED
3FB576B1E31187BD
3F87A37BF0914D1A
BFB1CC212B48D90D
3FA204DADB2D62BA
3FE1263FE014D321
3FB0EE02D26D4AB1
BF95086C0A3F4916
BFE02DB89FEF1E30
3FC53867BAFA3C72
BFC80CAE79A58865
BFC780077742ACA3
BFA83B88C230E77E
3FD001AEA112B4B9
BFCA8B3ADC1EFA41
BFDC20FF3E8F06EF
BFC50289DD8EE6E3
BFED7ED3B015DCE1
BFDA273E326AB657
BFC48BBEA516D051
BF8E5F82C7701693
3FB54ACD2DC5B602
BFC3FB434249FC78
3FD24225A9DDB47C
BFBAE4AA0E30F038
3FCFB30D5E0C7AB8
BFE208C1A5515DC1
3FDCA1BA64EB3C24
3FDDE17C1BDA511A
BFCECA0F42BE15A5
BFB168ED5456C45D
BFBF88B36D5542FE
3FD96ACF81B2F307
3FAFEFA3BC5D3DF4
BFC70079E2EFF9CE
BFC9352C1C3DA34F
3FCA52F48420E177
3F96444178705426
BF8010E8858FF759
3FD5725B7CA87225
3FAF545C22C09F42
3FD68DAD7D264666
BFC02146B71E8FB8
3FBE232F2F179AA6
BFC1338EB83F2128
BFC95ECD95CA821A
BFBB3AB0AB032376
BFB8ED2A3A662D5C
BFCAF813E2E0E055
BFB05F214DAD87E3
3FC7DB835E6ECB3A
3FC2754236DC3520
3FADCEFAA4766C6E
BFF26E89EBA6ACA8
BFE6B22805D88715
3FCC29404036FCC1
3FA1708FB5144963
3FA371E9A74E0D29
BFC7920880AD0E96
BFC0B6CDC7739C85
BFC6F05801C9AEB5
BFC499D7ACFA9F6E
BFB74923E059F265
BFB356267D424AFE
BFD0EF34A0F17CAF
3FCCC49774256BCA
3FB7E8952A4929C0
3FBA9C7D79A8628A
3FC1AA42086325EA
BFD07BFB638E19DF
3FC14D363EAB616D
3F8B86891B9D1478
BFBDD6901A13FD63
3FC8D71B9ABB2CBC
BFAB8AAD17A5B90D
BFB0D3B370DB346F
BF95FF944A4F5985
BFD2DBF9BB6D53EB
3FB2E53A81DC0DB2
3FBF2A693522CC89
3F7D043FAABAD427
BFCD3369796B50DC
BFD43285E43015C7
BF938CB382230569
BFC218BEFE2D170F
BFCB689718350012
3FCDA2F77BCCFFF8
BF936E6FCA3D506E
BF508218C97A87DC
BFB6B21CF32ADA74
BFAFEF141F71B54F
3FC267A9DD5E9562
BFA534932F9D2697
BF9FF0FC0117D80E
BFB5550413600422
3FBBA5723FE36FD1
BFB60E19C929D511
BFB79EBE7195439F
3FD10652BFEB67ED
3FA24B83B704389F
BFCDE95F3F2AB83A
3FC4546257E3ECA4
BFBB5039286AAD48
3FA368CF4C58F40D
3FD0121AFFE0A069
BFADD14024077138
3FBF25EA75543FF3
BFB7B30E34CC0F8E
3F9671B6D18DD1BA
BF624E20CA4FEFD7
BFA2B05D8063BD95
3FB29F7BB0D06CEA
3F9199379EFDB19C
3FCEA059BCB4D1AE
BFC73D27BE35046F
BFBC9D891262D913
3FBE291C2E08FCD4
3FAAF67D754BB184
BFC4ACC357831EAE
3FCD7382AE9B895E
3FBAE8EABA9E76F9
3FC1D4E74D819313
3FD8722ABFC72ACC
BFA8C1770341A8ED
3FC6476F80408226
3FC152B417743AE5
BFA44100FC295BC4
3FC7A7A159AC6EB3
3FE18EE3C891D4A9
3FD2F9213E940F6C
3FB5F31DC4611874
BF82B9A0CB1135DD
BFC9A0A6BE9B30C8
3FCAAA86BC47438B
3FBF82BA041D460C
3FD84336B6757273
BFB86D96DC4FF78F
3FE2656F5B01AE56
3F740456A6D5C23F
BF9329C098B6F098
3FBDA2395058B2F5
BF9E48C515C93FFA
3FC97E1E3E039BC1
3FC7104E81C33925
3FC1C5E277D9D64B
BFAAE17B04AE0F9D
3FA169B4CF800574
3FD624E08A18F316
3FC28280B8CD1094
3FB36AEF0C3CCF3E
3FA25FE66F8B283D
BFC5D0E50A5B4DAF
3FCA4B3609516273
BFB25E4B39E5290F
BFBEDD74BABCFFD0
BFC24D84C31DCC6F
3FB889910DD9DD57
3FA8B20D58D90A1D
BF90B21BC6850A16
3FC296FA427BD086
BFCE60533C681035
BFBA0F2D9A6CFE30
BF910DA8343C1CBC
3FD39F9F01B866E4
3FA66D4DB641451A
BFC0A66CE6B327E0
BF752AEF97D2EFFC
3FB9E299BDABC79A
3FBE5E8398FC3ACF
3FA19D431C5F5C31
3FB949C774485153
BFD0B97FFE67FA65
3FC2B32AA4C44514
3FC8DB81C6693070
3F98FC295BC3F60F
BFC03662E8828ADF
3FD40D37C1376D55
BFD0C4FCF4B2C4E4
BFB16C396424C2AD
3FD00B71B8AA0019
3FA389B1C50989EC
BFB47FF95F7CE833
3FB10E6776DCAB3C
3FD226B0836B0405
3FC07E5B4FB1EEFB
3FC21A58DC3A281A
BFCE6C0206C06388
3FBC954AD5664E69
3FC661F903E262B6
3FC3E87D576EA6D2
3FD2FD12A5492538
3FD2D75F422FD052
3FA11DD9DAA755F0
3F9139EEE423D674
3FB695A314ED77E8
BFB7F89E61D55D14
3FC11FE8BE1A0189
BF8E69A3DD9546FA
3F8EBE947ACBCE1F
3FAE9704130A1DE6
3FB09786EFC8D03E
BFB69216C365F0CB
BFC26FF7CA267F46
3FCA00F65F9840FF
3FCF607F871EC2B9
3FBEBD4F8147933D
BFBCE1A6F97E8699
BFB871F15EFD6673
BF9A0C45B3936AD6
BF959D8E45D373DB
BFD1CF004346D1A1
BFC3392275F6A73C
3FCE5B75DCFBEEF9
BFAF89F4351B95B3
BFCD8DE342850AC1
BFC3A677E3E7459F
3FDD3DF89E8CC87B
BFBE8D51B7ADABCA
BF93F35CAE81B31E
BFA0478D0764F929
3FA14223660BA2A0
3FD31ADD7BF19300
3FC25101BAC02FDB
3FCE49F42A5ECE42
3FC7E734571FA186
3FBA4ACDAE9F0F4F
3FCEE77519B283A0
3FC76B40804DC32C
BFBB5CE6B5D711F5
BFAA24717969F943
BFA3ACACC6C7FB01
3FD0A553C1C90DA6
3FB7A93CFAB2384C
BFB215C5392FA183
3FA0ABD3D8DAA222
3FB6C8899C20878A
BFADF1B3E1EF48CE
3FB9937D4AD96D19
3FCFD4AC6A2BC2D1
3FC44D673BF9556C
3F97DC2AE3AE65AF
BFD4214E43DACB3D
BFB9940B0F52AE4E
3FBDE60659B654BB
3FB08BA1DF385F42
3FCFFFAEE1D5479B
3F93801B9938A0B0
BFDCD96271E51FAA
BFD310B69C08DFA3
BFBB931DFF6F6162
3FBE1471D1FF66A8
3FC08F3C5DFF39B1
BFAC20B2272F18F2
BFB03B8AF0896A77
3FAF19BD964E0AA5
3FCD17AA969705C1
3FD078EE28672757
3FC36FEA48B3A305
BF9673B8338DA113
BFA51C2148CFFD84
BFCB4ADAC4B22125
3FC2B1243A46F8B8
3FC93F9556BED390
BFB7E9EFF342825C
BFB1FF4D52992A08
BFC8161F7C1C3037
3FC3EF84474CF09F
3FD9237AC3EB7CBB
3FC6C48C6177BF29
3F9F4CA8244BE4B0
3FA05808D591976D
BFC39C7A09308050

