BFAB68D805BAFFF1
3F665E1B1356C9E6
3FA1B8BB1CF706B2
BFBD96F9005C7145
BFC532EDBE090F9E
BFC6A8798653C19E
3FC0DFE9094375A1
3FACA9946379CCF6
BFB7C6992C0B76AC
BFBCCEC84F8F8A4C
3FA814D77D7FDD86
BFAF9336D3FC96EA
BF9A09B60C4100FC
BFD32289E2ED4A9C
3FCDC2CB4131789E
BFBC6502383E8AD5
3F9A84538C441B8E
BFA8DC2A62D50C61
BFC43EB2C3364B16
3F85AEF24658FFCB
BF795F7CE83304BA
BFCAE4815EE53DB2
BFB4C62E22274742
3FBC1960CF22BD6F
3FB6C845D4758DA1
BFAD4009DB4B14D1
3F8BAC5CEABCA1DC
3FD1DDBCBEE2A958
3FC6FCB8E335EFD1
BF7A66E1358F83EC
3FB76EEC1BF279DB
3FC9EB790A57F2B0
BFA1AB4CCA5E079D
BFA8290BE7EAB56B
BF9A8F97373EB095
3FC27B9F1D3C25F6
BFC37F98BC79EE59
3FCB56E7177BC7A2
BFD8FD71047A0D37
BFC2862D40AAEAFB
3F86DF69319CDB18
3FC7CACA7E93D9BC
3FB9B20EB071F840
BFA6207062E9843E
BFBAC79F107BF920
BFA624A9D8810B02
3FA5A6DFFE2CEC1C
3F851F18F4EE7EF9
3FCF4BF3DEDF73EE
BFC30FFB4AB98CA9
3FD02DEDE474893F
3F9A4298001172C4
BFC351559D965369
BFB88A682354EEC5
3FC04715FE99F966
BFBDCDD0020B72FB
3FA352DFA0E4E776
3FB16209E053924E
BFD4FF95210EEE5A
3FC04EC08266A220
3F7F096AB7D9CB8E
3FC87F6C873CCAB7
BFAEDAAC89606672
3FBD4AB835102D1F
3FA285CCB3218002
BFB3D34A3F694C75
3FD9127B6276ED9D
3FD0F0D5E0C7AB7B
3FA76A42131FED5B
3F798EDF815A5D9A
3FB2DE2E49139A3C
BFA83C5F2BDF81DB
3FB88A9D276DAD2D
BFC4077EFA5BFC2A
3FA5626E8A215692
BFC82896F7FEA9BF
3F955180A62DA6AC
3FBC31F69D2AC8AB
BFCB9953A3961CB7
3FC0CDD433C95B28
3FBD63B937EF8589
BFA72302E460E822
3FCF774B3B11CEDF
BF5643C3FA155A5A
3FA1B94A0E161845
3FC43500FE2CC129
BFC0C9CF56EAC860
BFA9BDFA4C0BF227
3FBAAAB9519AD254
3FC2292F38D2AF65
BFB70372D12DDA84
BF8C7C5E75564359
3FC1BED9DA7C62D2
3FAB29508655442A
3FB3B5D6911BC6B0
BFD7D22FE31C9A6A
3FB1F0FEDB3CD218
BFC5D9F122978496
3F8C275B0DC2B648
3FD283421F095A9D
3FB7735E1B943023
BFA7A493C89F40A3
3FC4519ED91E94C1
BFCCB715806FD1F5
3FC3FBE467732BC7
3FA61724B4C03B9A
BFB0147E922C3CF5
BFCCF3C12D5C599D
BFCDEA4502BE7648
3FE6E044FF0D91B9
BFD623913F2D1186
BFB0B3F1B48DBBC0
3FC9073919D20E2A
BFE592C351230843
BFAA797231CBAA0D
BF87D6D94022AFD8
3FC311AFC04C8BCA
3FC38B59FB490C0D
3FC4C5AB5AE223CC
3FBABDFC4F71575B
BFB71F8D390E1394
3FE2C80E41614946
3F7E8E12A7CD63F6
3F99BE3E13B6EC10
3FB54C01355F326B
3FBB4D97B86DF01E
BFBE603E2E38F86F
BFC4DD983698178E
BFA3ADDBC5E3FA66
3F87A1D92E2F1267
BFD9F134E108431B
3FBF7ED7A1671868
BF92C4AA138F53F0
3FC508CF9CE0CBDD
BFA8E9E083E3CFC9
3FA1161D22D08F7A
3FB7DE13462DE1BB
3FB482B1A0A175B1
3FC1F707DEC69F61
3FC0AD4100D1363E
3FC4696015EA4D10
3FC0E547578272E1
BF9F51250BA829D5
3F8AE5D35902FB88
BFB47D279DFEAE1B
3FCF74ABB900E807
3FA040FF4EAA3218
3FDB99A58306DB11
BF9D1ECE7746DE61
3FB444C37E6F71A8
BFBE6B2BF2F804B4
BFA64CB3B7D2EA9E
BFA43C06EC58585C
3FBC72E3775E3062
BFC7968801C1A120
BFB8F700520A63DC
BFB2F01C5D2DD880
BFCB1E65056849C0
3FC6FC685B5E1F9B
BFA8B35887809262
3FC2251E88006A08
BFB68F8CD05D7B05
3F89544CB361ECAF
3F8FAEE88B44414D
3FA3965414D52434
BFC4F31B808F0699
3FCF65E389A7B40F
BF9FD4052558D503
3FC3DF2C75D4C366
3FB9C079D833325C
BF3AC629F0695F14
BFC57743586F57D2
3FB682FEF86E1054
3F94F5AE6D6634E8
BFB0285ABD0FEB5B
BFCB314FC3B7A548
BF742223965D241D
BFB8F9B05AA63EC4
BFB0A75CFBAE8C9B
3F94841578E315B9
3FC8672CF55683C5
BF9C26E44564632C
3FCCC3A9379C4E80
BFA980C9BEFB52F2
3FA0CECEDA991337
3FD6A79BDB125FD4
3F9A44D318C141FF
BF851FFBC8E3B41A
3FC6FC00D76B614D
3FD6CF4460D80713
BFB47F115817184A
BFBDE7F1965ACAD2
3FB9EB8346460A7B
3FE30BC941A7EB16
BFA5F21A8F227246
BF9DB27430FF5159
BFC04C68F9BE9D5F
BFC00909FF5D42D1
3FC179AE8233F753
3FA56FF4AF94D895
3FA15D33B7BD710F
3FB1C59A288AB8AB
3FD55A73131D1336
BFC12D7584109B59
BFA45E03407C46F8
BFCCC699ACE4CFF9
3FBB1913CD3C5E55
BFA9A16616B54E2B
BFB411B1AE38621C
BFBE16C76CBB9517
3FA8B54E80EC7990
3FD81EAB3BD87349
BFB610EADEDB9817
3FC3B3CCA0AD0938
BFBC1FAD6F6466DD
3F973257C1071BD3
BFC3042426FBC259
3FC26FF61CA7559A
3FC49C611F29BBE6
BFD78A37BC59E2F5
3FD14DD5A0DBD82D
3FBC31DCC6EAE089
BF842682F694F240
3FB533F0F347B5CC
3FB9B1F07D810A2C
3FA59E34081A55C2
BFD40F47304039AC
BFA4598DBAE91F94
3FADDBCC99F70C91
3F94FFDC43B83B9B
3F52EDA3311D0371
BFB1B8FB33BD71BB
BF9F7284010106E6
BFB2EACBBB54D544
BFAB9CEE37D68609
BFD9E00A81B9282A
3FA4F2F2D1435413
BFADA2B1455CD670
BFDC8C7E9383D5E3
BFBA1521FB277E1E
3FB5FB28D5B72C27
BF90AE12F8553BC7
3FA38424BD4EAA88
3F9D7AD7B78C73C1
3FC78CF586D546C4
3FA0E5AC16C9C607
3FB59A42B6DECED8
BFC1AD208A0E364F
3FC440EB01C12046
BFB0897FC608E353
3F91B2E44360FDC7
BFB8C916B4CD51AD
BFCFC86879911089
3FD3B0555D5499E0
3F76250AD16A4066
BFBB673E7D942A6F
3FB094139DC19C6D
3FD8613B843A8CC4
3FB00DC96C45229F
BFB1C5D3336E417C
3F93EBDD5E3F7B6B
3FA398E6C13FA5DD
3F75FAC0D0EB148B
BFB9F04EB214BAA2
BFA143E359AC18CD
BF5F12343510D8EB
3FB4BF3E43DD7A6F
BF998BD1AFE082E2
3F852ECB6F7F94B6
BFB09EC9AF360E04
3FA8F4D0A1EE7CCB
3FC6A618C37057AC
BF9C72375500E355
3FAA4C648794088B
3FD487328EC8853F
3F8B7030BF907934
3F9FF456539EB892
3FBCD0F5D152EE64
3F989E9A347425ED
3FBCF57B97A5F979
3FDBFAC8889A6DD5
BFD2FEBF632CCB0F
3FD43415B1422CCB
3FB4093C13D7784C
BF9003EF4DD621B5
3FA1E72D762FDD12
BFB852080A907CBA
3F8E6CFC2CB6C249
3FCE42CD9A7D195B
3FC3877BF543E45B
3FA97878B7A1C25D
BFD838BDE1A271DA
3FD107D95D7EE132
3FBE785652F2EC1B
BFA85149C9A2A0D4
BF5DD4A736BB280A
3FB8630E423808DB
3FC5691BB7EC6AF8
BFD019E5EFB381A2
BFC201884055DB7F
3FBBF096808A7EF4
3FD22456F75D9A0F
BFC93133BF1F3A2D
3F8727491A254534
BFB222500C06F466
BFB6F4FFF1BD471E
3F91C98E7EDE5764
BFD740B8E28A235A
3FABE06BBB0F0A34
3FB0429A2E69F5BD
BF9D5B5337E06C11
BFA68BFC2224EDF6
BF99AAB87ADB3D7E
3FB89B4C4C33E02C
BF95357C0DC28B55
BF89D9EE1D7F6CC8
3FBDEB1D9AC5939E
3FC3D66B1BACD9BD
3FBECDABC4EA5549
BFAF2D57511FAD44
3FA46B9F8B4B223D
BFB2CDD23063F5F4
3FA3B0CE139EC34F
BFB0DFB5DD9CFEA9
BFC43CCCA488E0E5
3FF04F9492C99BC0
3FF0A94A46752F57
3F8F912500EB6264
3F83478EDFD74099
3FB287B413EE4974
BFA99D695CE5DF17
3FB35D396C076524
3F88FA5BA643F6FB
3FD0147D2519BFF0
BFD2844CC0CDE5FC
BF85413529828556
BF53EAAE093D407D
3FBACCAF9B8E9153
3F91692735F9E204
BFD0B1A2A4DB163C
3F91883599140DA9
BFB6E10ECE240FD5
BFD005136537923E
3F91E20BCE3F68A1
3FAC211375FE89DE
BFB6D0C24FC63BE4
BFD1ABE5611848CC
3FBA02C704B6C8FF
BF854D19386043B8
BFA67B5205DC37FA
3FBBD67E7C5CC7D7
BFB2BB7CEE3D34EA
3FCD99E03B698D8D
BFB5A92451182088
3FC0879CC1ED1FD4
BF9CBA9AC61476DA
3FBB2135DAAD6020
3FB454F3775B8130
BF9207368019C0C6
3FBFE7F2C3009B30
BFB972FEA53706A7
3FAED7B3DB8F3262
3FA6D552D83F1BCA
BFA92B330997AE5D
3FC9BA44DFD8EE18
BFA7CB30EB5A568E
3F913AC04554F3CD
BFB878E89F105106
3F863D63E3AA33F1
3FB835C4DDEB0242
BFBA8FD87AAAEBFC
BF9A2E2023E1DC7E
BFA9741A591CA6D5
3FDF47FD044D16B4
BF7E85FFB3D4D936
BFBC8F6F49390403
BF41B6A13C503D5A
BF96A013B137C5EA
BFAC772550718782
BFC20B8DA7C8DC52
BFB603000F9A51D0
3F9A8C3D90844722
3FCE69720987BE25
BF812EAA8D5CCA5B
3FA3322A1EB77B2C
3FAD8A496F8AA763
3FB3BD10ED0D341B
BFB339832E732FF8
BF9B390300E659E7
3F4F619A23D8216A
3FAC9605656F9B6E
3FDBE3DF8332CFE1
3F85AA857A27E44B
3F815627D4DB3921
BFACDD4EA5299AAE
3FADC94AB7335D7B
BF92986ECC3B8262
BF7C5743DEA714D7
BFD8FD3D82ED5AB7
3F8E6EDF5BC5A38E
BFB4CF72EF60CB72
3FE11BDF59974B0B
3F951AD1BD776F4D
BF6CF72C46DADAD7
BFD27669FF223488
3FBAC710CB295E9E
BFB677F5AFEFF241
3F62EE69D586AFB2
3F92C41D25D5A792
3FABE9BCC79C0B64
BF9646996C782352
3FC5D42977F38197
3F95C6A392ECAC3B
BFB3533DEA9C4093
3F997B0D789FB523
3FB0B27DC120F213
3F2DE7FCE7E9511C
3FBEE7CD03537197
BFD7212BFF624B4F
3F86C8FD81C2DAA8
BFA6325C1DB821C5
BFB65025FF9065E1
BF8A6FC3CC0BF672
3FAB65571CC760FD
3FC0CD5D1584CC83
BFBCC174540FCCA7
3FA1A0DE875F5A59
3FD5D2FBBAF6E173
3FB0649FBCC9498B
3FB2D363BFC2F90E
3F80EE12ED987456
3F8BDD2DEDF9EE18
3FC4D8FCDBDE37AE
BFBBF9FAD84DDF5C
3FA08BCED5BB88D8
BFD19D1C70790EE0
3F984AAFFC877A88
BFB0B9C101678926
BFC5EDF11F3C8643
BFC1F3F9F7D335C8
BFA5E14CE18515A9
BFB1D2B670BFDBA3
3FC2E492A6B637B5
3FAA05A5307B9DDB
3FA26A90C2857621
BFDCACEC1C486016
BF4E11B8E50E6218
BF905EEB72D534A5
3FB048A7B997E6BC
3FB3A3082D4B11CC
BFB47CFB2854DDD3
BF70AE1049235F81
3FCBDC6CBD6D8945
3F4C869E6A38D8E5
3FE1833AB283756B
3FA4981E4463B22C
BFA7ABD403CDBFE7
3F8AE942794C472B
BF9808A697AEDDCE
BFD04535FF964DB5
BFD2678839F5C514
BFAF2F991FCC232F
3FAE40C08F7CB532
3FCD715BE2D4CBF5
3F9DDA6CF37354B6
3F892364DEFCD020
3F707BE6555F0219
BFBD709411C54F55
C0015A5A617565DE
3FE651981DC38A59
3FD8B81733226C3C
3FA92079473EADE6
3FC8D40AAEAFAB54
3FB218D05B779FF5
BFC1BD2D071F2E19
3FC06D54C2242752
BFC54DBA07A3377D
3FD986D358D8086A
3FA45C5AC9D01831
3FC8DE6901764CB8
BFBB6C25EDFB45B1
3FB371232DD77EAD
3FA0AEBE18FFD63A
3FCC286C04E0E55E
3FD0B1EA9E43F852
3FAAEA3466B9F356
BFA8A50CBF5616B8
3FC301BAEB22F929
BFB68DA3ED04A5AC
3FC1FDA069C2666C
BFE3C4D31E1FA5B8
3FC231F78963EC64
BFA91DB1ECA1A95E
BF9D30515689CF77
BF75332820858692
BFC0DDEDC6ED64C8
BFDD08F2A29F51BF
BFC26162459A68F7
3FD5B62EBB29614D
3FCA8590F90C1AEB
BFA88D10F51AC9B0
3FC3C9C789C1E035
3FA93835FC66427F
3FAC0DFAEA6C6FEB
BFAB0798A5A8C688
3F87A278E645C4B0
BFAF56CC3F892CE5
BFD75CEA514211F3
3FB7D4428CED63C6
3FA02745EA1A0FA1
3FB8B66B8C6B07E1
BF84A958FF4AA367
3FA0746FBE7ED64A
BFBF96975BA6C4D0
3F98594D4E3C7902
3FA4651EE8A36D02
BFCC22DC23010BEF
3FD15C1D01988674
BF741FD7B6B5B42C
BF8946E770113507
BFA99C3EBA7AE5A4
BFAADCB6FAA87D37
BFBD483248D281C3
3FA5D0DF2B1E3BD5
BFC4332BA676F7AE
3FB768B9A7D6F418
BFD3FA3B2F80F70B
BF79B42E7055D371
3F9B85F6CF7FAF8E
3FC6115F6367D958
BFB4494DD1C5042C
3FB0184F0144F984
BFB4CF6456C1ADB5
3FBFFFA363C7D08F
BFDA99C21DF22E5B
3FCD1F23B1B5F011
3FAA5FD0F5FC460C
3F835A65513D8A4F
3F8C3BBC18CA7C3B
BFA86BB0A828FE7C
3FE1D6C5A9C2DC89
3FABFFCBFD99F432
3FD0955856D92AA9
3FDF163F1C1F9B51
3FE63FA5317D508E
BFB92CA275605454
3F91F84F5C8998C6
3FBC4D2AAB245B7F
3FCA6EDF1B58F6E7
3FA5A116E6766C18
BFC2FB1B7F376DAA
3FA46516DB0DD830
3FE64916FFF6C5C5
3FB2FF80534C833B
BFCCA2C47B19A6C5
BFC1BA8E9C3A88BD
BFDA7A39ED6197CB
BF8C940255F0A26A
BFB101848F714C9E
BFAF366AF6181FB1
3F9E749DB6B4B27A
3FD28905A2AC3CDF
BFCB3E3A784BEC12
BFB7E5BADA5C0189
3F7114DDB2A32AE8
3FC07C6F3C4DE40F
3F8A091DB5F36C74
3FDC3681DCB97EE7
3FA9404EA4A8C155
3FB4DADAD77C7E2B
3FB922D4EC2B0BF2
BF649EFE3275731F
3F9FE464C3F9EA67
BFC44CCF3B91FC6C
BFADC252A060DE11
3FA31986E4B62291

