3FA2F07095EA3797
BFA91F2B137F0DD2
BFBEF2F9B2331886
3FC012725DEB6DA2
3FCFB91057661863
BFA180C460979A66
3F846D9D924C9E3E
3FC2C3F044CC0CDE
BFC8A9C4DFEE67A7
BFC2B1006885A571
3FCA351B8039205D
3F941FFDF73C3713
BFA67FD044D16B42
BFD22AEB661507CF
3FCACCB47918F092
BFB152FE54AF2ED7
3FD5F712F1744C02
BFC92767628FC22A
3F8B3F1DF80D9844
BF8A3FBC837E7A2E
3FB093E0F2F47EC2
3FBBE9F9AE5740DA
3F95361667758512
BFC63186A042AB20
BFB647D98871FEF6
BFB7438A18723CB3
3F97DA4A63D160B0
BF93C7896BF9F92B
BFD131073EB8A273
3F9E8161EA55C9B6
3FD33C5E1F7007D0
3FD4443AE2AA03CA
3FB9E083E3CFC8AB
BFDD377C6E0FA814
3FAC35EEFA4931CD
BFAB00F51D78E1BE
3FBDFB54CA87A322
3F90E893A7BD1DD8
3FC6F5D7C87E5E80
BFB358DD10E7AED0
3FB7D520027EE05B
BFD2EF8761DE9750
3FC5542ABA12E0D8
3FC4F382D98EA722
3F8E733C0CCB956A
BF8E7342C2C83C19
3FC6F60B099E645A
3F99E7A2910F0683
BFC5E77C259565D8
BF95A989D1A579A2
3FC16E089C30CDA8
BFB87E1F14C33097
3FA21619F2C559E7
3FA7530184BA646A
3FC7EFBC3B0437F3
BFB91D790CB13E51
3F95AA009A03CCBE
3FBD2E384CA29AF5
BFC40615C3B6A396
3F9B0004DD8A5F3F
3FC7CF127750EF5C
BFD8139BDE6D5E27
3FE0DA0081DB0C00
3FBF401B231C0ED4
BF9623C2A7DACFF0
BFC4D36E7C8A6A27
BF9B6D020BF3D423
3FD67E177D4A2DA1
3FE0CA3EFDECAA63
BF90EBE7F013CEBF
BFCDE2D34968A9B8
3FAADEF065D922C6
BFC3361047CBC692
BF7FFD02F57DC5FE
BFB0A44A4CAA52A4
BFCEFDCEF84B2ACC
3FB42763713E86A3
BF8CFA152F6720CB
3FAF055ADDC71B07
3FD5B1061CCF9986
3FA0C892AB68CEF6
3FB5E5A0AE35DDDD
3F968E40F5E97BAF
3FB7B774CBD9DDAC
3FD4DB2C610700FB
BF7B1EFA6C17555C
BFBF65404B9F90AA
BFC99E6256366D7A
3FC6113CA8D2C78E
3FB9DCE6A05D8313
3F799CDC6F2C32B9
3FAC18A1369BF366
3FB0861D65EC6DFD
3FC5A0962296ADD7
3FB86B46750463E8
BF630E09D8F1C931
3FA67EF177A7008A
3F95F45C07E8ACA7
BFD0788DFB80BF58
BFADFC3545313785
BFBBF8A64477D422
BFAA5A6F37456692
3FD1A69E64DA752C
3FDA0DF0A3C190AF
3FB34545DA54CAB3
BFD13155221B5DD4
BFCE253E687081C8
BFC19049B9B268C8
BF9DA13B239789CA
3FBBCF49D4B54E81
BFAA55D51EAAE5F2
3FB8B551DBEACCE8
BFD459A99F4B345C
3FAB68064EA3A70F
BFC7A08BFC2224EE
3FDE4C06D42F979D
BFBB5867CB15679B
BFC4F8111E35752D
3F9451C1E999E214
3FA99C0AB814D9D7
BFBDA254FF0AE287
BFC7C7984505C38E
3F6915EB79B6246A
3FA8AABE043213CE
BFBE8E899B1ED4D7
3FBFEA625EEFCF86
BFA78CA468AA8E5E
3F9674D20F00F9D0
BFD7D9957D55404E
3FC2E37CFD00C725
3FD1BB5083502C12
BFC73D4DFEBB8755
3FD393B680B013AF
3FC592607FC78B6F
BFE6B07C69DDEA2C
BFC26C9122D292DF
3FD2B212E22FE06D
BFE25ECE5710880E
3FCBF969E3C96894
3FD590E1E50CDF8C
3FD3D6FD7D43CD8A
BFC12021DE77193C
BFD1A5C0EF48F897
3FBCFEB074A771C9
BFBFD2B193357C64
BFB0437723221905
BFCC3696BFF578E8
BFC0BB47FF9E0564
3FB3167C6E3A9B31
3FD85A7CB8B842D2
BF9A2E446102FA30
3FCE1B447F0AF801
3FCB8B13846C35DE
3FD1E6813E590123
3FC18714C7376196
BFD050D920EE0C38
3FA0D95CA8219CB3
3FC4A5812E68C917
3FB9007EAB00CA2A
BFB77D37B929D7C0
BFA4015493D60B3A
3FBE67E08EF67D75
3FC4997404DF8DC5
3FB6ED63F1162D3E
BFA08640CC4DF6D9
BFCF7893BA877ADE
3FD5AE671B980BFB
BFC22EAEA9A123A7
3FBA5167D1A07124
3FB7B726725A906F
BFC5491BBD4ACEB0
3FB260BAAAE13FA0
3FD208EFDDF3E697
3F8EBFAE563F26DC
BFA810F0E90BC7B4
BFC21D303C88C764
3FC82F1556D44D1F
3FC11195FF86328A
BFD836767EE25E2F
BFD1F10F81FE1C7B
3FA8AEAFAB53D641
BFA5C70892A0AC08
BFD2A6D9889CF214
BFC683DF07B7DA4C
3FC0EF1BAC2DF0D4
3FB9999B720BE10A
BF6E8CD89603B7F0
BFD0E6A8605BE051
3FB26C2A1FB92DDF
BFA5A9B875A7CCE3
BFD1D314A4FDA5DE
BFC0EB0922E96407
3FC640F716217F82
BFCFA120F771661F
BFD1B10CFDBF5DF9
3F90B51017A53833
BFC19BFD770EAA3D
3FC096D4D8B4E275
3FC30D64419E050E
3FB1CD929A76E438
BF7003960C9C459B
BFC55FAC3801CF0D
3FB50D1BF24EE76F
3FE272F265E389A8
3FD3FAB43BB15C03
3FC1375A49CD7E79
3FA055FA5D7EB63E
3F6C3CC730AB9976
3FBC46FBE7ED649D
BFBC1A39E8033412
BF9920C7CBB118E7
BF968BE0F44C17B1
3FD70486620456FD
3F8971A22EBE8460
BFB70B67BD2894F5
3FB826EEAC4598BB
BFC668217C7C7D54
BFBF4B21E75B6E66
3FA1D21EF131DBF0
3FA35D70C96BC449
3FD07854A573C26F
3FB3C4961C8C7DA7
3F4101C57CF74C7D
BFB6599CFF54B462
BFA5D24AE60252EC
3FD2367C93CF553D
3FB9C2656ABDE3FC
BFD6124511820883
BFC5B8FD6215F4B4
3FD1B9385AE553D7
3FC2E9EF87E2B7F1
3FB7AF5ACBFE70B4
BFB251B9DC044D42
BFCFB213630939BB
3FBDDB77B56E3669
BFAA883CCFEA0DA5
BFCD251D1AEDED03
3FA65C05E5474209
3FD14591FABECD86
BFC708B48481847A
3F7DEFBCE6D0AF05
BF9FA9AA5DE20873
3FA74535EA1CBED3
3FB3F3DD0701A6F4
3FC4931BFC09FC2D
BFB5561F715F68C6
BFCCDEEFE4FFC979
BFD0D7848103A09E
3FD07EE6BADF8F72
3FC615505EBD24B9
3F9A0D1D1EF4B7CD
BF7C7315765ED6FB
3FAF7EA475C0A170
BFBF5EA526EB7C3A
3FBF294EADE2FCBA
3F953D102BC72E27
3F9D17ADC6A23B54
3FB9F05AF16837A2
BFA4988BA7938253
BFCA1B7E20416901
3F9762D6E4D3A9B6
BFB5CDD60C3BA298
BFB373FCFCEB4D96
BFB7B7C04B3430DF
3FC1473F9A1ECFA4
3F98F4A604B6F3F3
BFB94A2694BF3F46
3FB7B9A14BEA8F2A
BF811374A6F0F018
3FC9D62E5FE4C20C
3FA5F965871862A2
3F98EEA94080A3A9
BFABE5E8A79EBFF4
3FC02C757EDD2ABE
3FC07AC6DB1B4429
3FDB7D096050F896
3FC2E43BE9BB1A1D
3FE20CFD3E84A00D
3F83F44231A8C485
BFBC1510327D2ACE
BFE36EE55B390BBA
3FE39A2F562EE0BE
3FD15C63C39ED0BB
BFB67D9C38047E3F
BFC9D20B2522236B
BFC12AC5BBE16D18
BFB7AFC9B1BA4CC2
BFC2BAE111FE2F45
3FD4B4C44264A978
3F81504C9E942A44
3FC247178126054D
BFCCF59C79C8C3D4
BFD8A8F29D40EE07
BF9AA62AA19439DE
BFBEB96ECC108F44
3FCCF7DB186A042B
3FC87C9DB55D198C
BFC52C2C58CE7849
3FE0052213503EDD
BFC8E0E4466615DF
3FD418589C2361AF
3FB5C25DB30E8AB2
BFD364A8C154C986
BFA5A7B4BA5C5CCD
BFC01158019EBB97
3FD1D912A0968DF6
3FB468F18614AC8A
3FB98CA31111A03B
BFB6901C6D4903AA
BFC814131CE84320
3FD1C7712302E461
3FDA9EB44063F345
BFA0F74978191651
3FB54262A61278D3
BFD25AB8B33A5490
BFB0D4D1FEE5CEA6
3F99EC6D51113F98
3F91B94708FE0076
BFA65831197D7F88
3FC348FD0980874F
BFBB652D564F6CFB
3FD78CAECF8BC3EE
BFC06A53DBCA40AB
BFBDEA6030974C8D
BFC005DBE21385EF
3FAEF4F2DBAA3548
BFCE59202CC631A8
BFB3030BCE147583
3FC3C8358E574638
3FB43A002BF4D077
BF959076DB28B022
BFDA684E3292FA43
3FA5E5BD5E9AC00A
3FC5E6EC07D083E6
BFAA8F6085A6C881
BFA0D7F244D673C0
3F9CFCCC6ED8FBAF
BFB9A0CFEEC03C9C
BFD32084243C7551
3FBC90A1CE467484
BFD03C7C3CE76702
3FBCD0D1693EB2EE
3F71EE5F43B25C5E
3FBC67402B13541B
BFC928BB4A995653
BFA2CB90B79DBB92
3F8E1B38EB83F213
3FE1EEB306522998
BF7E830AB6E83406
3FD1621781FCC4E2
3FD989273B5845BC
BF9BAA82750FCC7C
3FAE4F12B7BD9C02
BFC733325C739E5D
BFA71C5347D0A41D
3FA97BB3D5850233
BFBC21464BBEC54D
BFC066333ABFEF6F
3F74F46394A4E82C
3FC6E2F5C3910EDC
3F843A4DAEB488DE
3FC5CE3643DED208
3FA98AFC9DCAD6A8
3FBCA6DDA4E14B5F
BFD111E341D93E4A
BFD61BA23D2C3060
3FA63790BAF8B9E6
BFC2676BDF771E70
3F8C35CCC08D7950
BFB5A2430B6D7173
3FB8DA193B904EED
BF4E3D01E90E4BF3
3FB03BA72014F357
3F9FF11B8BA1B445
3F5E3C0AF32322C5
BFA3AEF64D23CA35
BFA2EED535511AA5
BFD35453BF44CEE7
3FB9435391CD7264
3FB9E53070E113AC
3FC78A057CEC8FB6
BFAB66E6BEE65A3D
BFC8B7BEC8A824F8
3FC60B56B5C44798
3FB4725633BE487B
3FC43FE8A3420EEE
3FC1A6886A7239AE
BFA916110E70303F
BFB8A4873365881A
BFB8ED83D18644FE
BFC30544F8D86E6C
3F87AE086680E873
BFBD2C1FEE87DD85
3FCCCD68A90BD271
3FD07067FCBE8206
BFC03D7DA4708D31
3F93BE6AB453DA1D
3FCC914EDCDCE549
3FB4041710E8B083
3FB502B28CDA9969
3FC1175CE8E42F95
BFC42A167EF2795A
3FC4C7C8C17A5E40
3F80D726EDD58604
3FC0631538A15C31
BFD22D1CC3B0188C
3FB90156415534E6
3FB4A1B399750692
BF6448C76F14E0B8
3FCF3D33BD1BD4C8
3FC7F0B28522EA10
3F9D2212A47265A3
BF9EF3C8E50BB2E7
3F8E9C799DD0B5E5
3F978D863AED10E5
3FCB056544A85097
3FC7FDBF88EC7839
3FD0A97AE320205C
BFD341C861D90DF9
3FCA9662578E0668
3FD73DE53DDCDA61
3FCF130BB5EBB4C4
BFC3B0AA97C3AB91
BFBE07951FB7556C
3FC13CFC5FB775A3
BFC020F2287BF519
3FBBBADADCDAE1E3
3FD620E984937817
BFCED089854F5FBA
BFC88F52C3C73F9A
3F9EE6B8DC2A0CEF
3FC07C484FFAEA17
BFC401F53825E13B
3FC4CA8FDBAAB622
BFB558B9D57943B9
3FD8203ABDC11635
3FC82E761F96F423
BFBE5551EC05F812
BFB2044DED73B65B
BF8E01036031C3F2
BFB6AC7365FE36A7
BFC8051A462756B1
BFD1EFDFF74BFC58
3FBE71EEDABEA7F1
3FC06B69C5EC5DE2
3FC3FBA755C4D88D
3FA3D0CB5F0E8351
3FB2C54B4E321221
3F8049FCCE474B43
BFB3FAE0058EB53A
3FB046752F5705A0
BFC48285000487A4
3FC43220B988F837
3F31BE43721AA49C
BFC3DD624646356E
BFA8A9DEE1216D8E
BFAC0AC7DA1EC4E7
3FC2A0151E4A42EF
3FC09DD2F9B7917C
3FD1D3DA1CC181C0
3F9CD1FF919B1D7D
3F8666AEE0A8A1CA
BFC6CED4E4C942D5
3FA7901C983C216E
3F90DB3DD3CB18C3
BFD3FBE8C42431B9
3FBD0FFC2179217F
BF95876D9D117345
3F994E14E0E2AE60
3F89D6830400EB8D
3FABB950184647E3
BFBDFA85C2A22686
3FC2E6C861024E64
3FCA75BC5A38DB94
3FA1FF3E6413D0C2
3FDE57379F5397D8
BFCF62AEE1546E41
BFD570BF85BC6D03
BFC2F491B7CDE221
3FC949BA9EA1EC23
BFB933FA83695686
3F9D23AEB0D7F9A7
3FB2FA44294FAF96
BF50EE0EE6CDA9EC
BFBA47E5F2B899BA
3FB9DAC55DED9BFA
BFBF7792DE94756D
BFA8DF220EF38DD7
3FCBC387FF93489D
3FDCAE55E940A0DA
3FB7F076CB0D84F9
BFBC1A18042DB71D
3FD3DA0564C3CEF7
BFD722815F3B23ED
3FE12C8CA08CD2E2
BFC3A74020568CAA
3FB7E7BC3C5BD0E1
3FB25AC1ED75B9C1
3F9488844879966F
3FB0690F631F5F16
3FDB9629E2FD65C7
BFB1E2DB81F15C4E
BF80020E222CA5A5
BFA923E8BD6E3512
3FDF4C88C4B5263D
BF8A65C75A1C2B2F
BFC5473D15E01122
3F8F1F24B368A2AC
BFA70B7E386A29BF
BFB59C79F3B6F16E
BFAE5F58D60504CD
3FAF2DC3B29CCAD1
BFB395794E7583E6
BFB75B5D48DB6618
3F8B4BFA546F6DF7
3FB8041EC89809CD
3F783E1A17027B05
BFC87A4AC9D2C763
BFCCE5D75FCDC5F1
BFC1D8A72095CCB0
3FADF6D9E690C331
3FBC1D6E4FE9CD39
BFB694B6050A2AFC
BFD30828225DF8DA
3F932DE6EE0B35E9
3FB2331BE1320992
3FB953F270755DFB
BFC87401848F714D
3FA06A479C76C3AC
BFA6D54CCE0EEC2C
BF9E54B73C6CC2CC
3FA039987D0EF465
3F7FB2EDFE75BC45
BFAF6A8BE4FB16E2
BFBF9EF6D0AC555E
3FD2325A4545DA55
BFAF1434EB443132
3FB40571AEEEEB5B
BFB96F0EAB946DE1
3F63FFE1CD0F11EC
3FA2FC5A5911EA0D
3FD55FFA7C078D68
BFD8CF7E2244CE66
3FCEDA539E0CC5E1
3FD0A731BD675422
BFD7F2862F5989DF
3F96ED352220BC38
BFB049141B150449
3FB58C0C93365323
BFE100259F76D346
3FA26F9FA018E4A8
3FD00B121759B8D9
3FBB07293F13912C
3F98632D4BE88BC5
3F9895C4A2DCB954
BF91A1600C851E8D
3F9A22CFB8BA712B
3FB29597AC598FBE
3FD04E1561BC07AE
3FC4012F7FF558B2
BF9A298B13C4D8E3
3FE095E9C17A334D
3F935FBAFB940A8E
BFC120E1B76A8FEC
BFB9F87AFB73D438
BFE7D4F5903A7547
BFD581CB5C345E56
BFCF3B18DAC258D6
3FE83EB8C2A9B342
BFDAFFBE5BF0C19F
BFCE94540A6E42FF
3FCDD65185D99E41
3FC7BA9A04CE70E7
3FA400B4DBBF58F1
BFA33CB18C299981
3FC4D884E6DA1433

